#include "magic_wand_model_data.h"


// We need to keep the data array aligned on some architectures.

#ifdef __has_attribute

#define HAVE_ATTRIBUTE(x) __has_attribute(x)

#else

#define HAVE_ATTRIBUTE(x) 0

#endif

#if HAVE_ATTRIBUTE(aligned) || (defined(__GNUC__) && !defined(__clang__))

#define DATA_ALIGN_ATTRIBUTE __attribute__((aligned(4)))

#else

#define DATA_ALIGN_ATTRIBUTE

#endif


const unsigned char g_magic_wand_model_data[] DATA_ALIGN_ATTRIBUTE = {

  0x08, 0x00, 0x00, 0x00, 0x54, 0x46, 0x4c, 0x33, 0x62, 0xff, 0xff, 0xff,
  0x03, 0x00, 0x00, 0x00, 0x10, 0x00, 0x00, 0x00, 0x24, 0x00, 0x00, 0x00,
  0x78, 0x00, 0x00, 0x00, 0x24, 0x00, 0x00, 0x00, 0x05, 0x00, 0x00, 0x00,
  0x78, 0x05, 0x00, 0x00, 0xb0, 0x04, 0x00, 0x00, 0xe0, 0x02, 0x00, 0x00,
  0x60, 0x02, 0x00, 0x00, 0x54, 0x01, 0x00, 0x00, 0x01, 0x00, 0x00, 0x00,
  0x78, 0x00, 0x00, 0x00, 0x13, 0x00, 0x00, 0x00, 0xd4, 0x2f, 0x00, 0x00,
  0xd0, 0x2f, 0x00, 0x00, 0xdc, 0x2e, 0x00, 0x00, 0x68, 0x2e, 0x00, 0x00,
  0xfc, 0x2d, 0x00, 0x00, 0xac, 0x11, 0x00, 0x00, 0x98, 0x10, 0x00, 0x00,
  0xbc, 0x0e, 0x00, 0x00, 0x60, 0x06, 0x00, 0x00, 0xfc, 0x05, 0x00, 0x00,
  0x78, 0x05, 0x00, 0x00, 0xa8, 0x2f, 0x00, 0x00, 0xa4, 0x2f, 0x00, 0x00,
  0xa0, 0x2f, 0x00, 0x00, 0x9c, 0x2f, 0x00, 0x00, 0x98, 0x2f, 0x00, 0x00,
  0x94, 0x2f, 0x00, 0x00, 0x90, 0x2f, 0x00, 0x00, 0x8c, 0x2f, 0x00, 0x00,
  0x0f, 0x00, 0x00, 0x00, 0x4d, 0x4c, 0x49, 0x52, 0x20, 0x43, 0x6f, 0x6e,
  0x76, 0x65, 0x72, 0x74, 0x65, 0x64, 0x2e, 0x00, 0x00, 0x00, 0x0e, 0x00,
  0x18, 0x00, 0x04, 0x00, 0x08, 0x00, 0x0c, 0x00, 0x10, 0x00, 0x14, 0x00,
  0x0e, 0x00, 0x00, 0x00, 0x14, 0x00, 0x00, 0x00, 0x5c, 0x00, 0x00, 0x00,
  0x60, 0x00, 0x00, 0x00, 0x64, 0x00, 0x00, 0x00, 0x84, 0x00, 0x00, 0x00,
  0x12, 0x00, 0x00, 0x00, 0x04, 0x2f, 0x00, 0x00, 0xa0, 0x2e, 0x00, 0x00,
  0xf8, 0x2d, 0x00, 0x00, 0x98, 0x2d, 0x00, 0x00, 0x30, 0x2d, 0x00, 0x00,
  0xdc, 0x10, 0x00, 0x00, 0xc0, 0x0f, 0x00, 0x00, 0xe4, 0x0d, 0x00, 0x00,
  0xa0, 0x05, 0x00, 0x00, 0x3c, 0x05, 0x00, 0x00, 0xb0, 0x04, 0x00, 0x00,
  0xe8, 0x03, 0x00, 0x00, 0x38, 0x03, 0x00, 0x00, 0xa4, 0x02, 0x00, 0x00,
  0x10, 0x02, 0x00, 0x00, 0x90, 0x01, 0x00, 0x00, 0xfc, 0x00, 0x00, 0x00,
  0x80, 0x00, 0x00, 0x00, 0x01, 0x00, 0x00, 0x00, 0x00, 0x00, 0x00, 0x00,
  0x01, 0x00, 0x00, 0x00, 0x11, 0x00, 0x00, 0x00, 0x08, 0x00, 0x00, 0x00,
  0x1c, 0x04, 0x00, 0x00, 0x58, 0x03, 0x00, 0x00, 0xc8, 0x02, 0x00, 0x00,
  0x24, 0x02, 0x00, 0x00, 0xac, 0x01, 0x00, 0x00, 0x10, 0x01, 0x00, 0x00,
  0x94, 0x00, 0x00, 0x00, 0x10, 0x00, 0x00, 0x00, 0x04, 0x00, 0x00, 0x00,
  0x6d, 0x61, 0x69, 0x6e, 0x00, 0x00, 0x00, 0x00, 0x8e, 0xff, 0xff, 0xff,
  0x00, 0x00, 0x00, 0x09, 0x04, 0x00, 0x00, 0x00, 0x1c, 0x00, 0x00, 0x00,
  0x10, 0x00, 0x00, 0x00, 0x04, 0x00, 0x00, 0x00, 0x4e, 0xd2, 0xff, 0xff,
  0x00, 0x00, 0x80, 0x3f, 0x01, 0x00, 0x00, 0x00, 0x11, 0x00, 0x00, 0x00,
  0x01, 0x00, 0x00, 0x00, 0x10, 0x00, 0x00, 0x00, 0xf6, 0xfb, 0xff, 0xff,
  0x00, 0x00, 0x00, 0x19, 0x01, 0x00, 0x00, 0x00, 0xce, 0xd1, 0xff, 0xff,
  0x10, 0x00, 0x00, 0x00, 0x12, 0x00, 0x00, 0x00, 0x14, 0x00, 0x00, 0x00,
  0x20, 0x00, 0x00, 0x00, 0x02, 0x00, 0x00, 0x00, 0x01, 0x00, 0x00, 0x00,
  0x03, 0x00, 0x00, 0x00, 0x08, 0x00, 0x00, 0x00, 0x49, 0x64, 0x65, 0x6e,
  0x74, 0x69, 0x74, 0x79, 0x00, 0x00, 0x00, 0x00, 0x08, 0xd2, 0xff, 0xff,
  0x00, 0x00, 0x0e, 0x00, 0x18, 0x00, 0x08, 0x00, 0x0c, 0x00, 0x10, 0x00,
  0x07, 0x00, 0x14, 0x00, 0x0e, 0x00, 0x00, 0x00, 0x00, 0x00, 0x00, 0x08,
  0x03, 0x00, 0x00, 0x00, 0x18, 0x00, 0x00, 0x00, 0x0c, 0x00, 0x00, 0x00,
  0x04, 0x00, 0x00, 0x00, 0xdc, 0xd1, 0xff, 0xff, 0x01, 0x00, 0x00, 0x00,
  0x10, 0x00, 0x00, 0x00, 0x03, 0x00, 0x00, 0x00, 0x0f, 0x00, 0x00, 0x00,
  0x05, 0x00, 0x00, 0x00, 0x02, 0x00, 0x00, 0x00, 0x46, 0xd2, 0xff, 0xff,
  0x10, 0x00, 0x00, 0x00, 0x11, 0x00, 0x00, 0x00, 0x14, 0x00, 0x00, 0x00,
  0x30, 0x00, 0x00, 0x00, 0x02, 0x00, 0x00, 0x00, 0x01, 0x00, 0x00, 0x00,
  0x03, 0x00, 0x00, 0x00, 0x1a, 0x00, 0x00, 0x00, 0x73, 0x65, 0x71, 0x75,
  0x65, 0x6e, 0x74, 0x69, 0x61, 0x6c, 0x2f, 0x64, 0x65, 0x6e, 0x73, 0x65,
  0x5f, 0x31, 0x2f, 0x42, 0x69, 0x61, 0x73, 0x41, 0x64, 0x64, 0x00, 0x00,
  0x38, 0xd2, 0xff, 0xff, 0xd6, 0xfd, 0xff, 0xff, 0x00, 0x00, 0x00, 0x08,
  0x03, 0x00, 0x00, 0x00, 0x24, 0x00, 0x00, 0x00, 0x18, 0x00, 0x00, 0x00,
  0x0c, 0x00, 0x00, 0x00, 0x00, 0x00, 0x06, 0x00, 0x08, 0x00, 0x07, 0x00,
  0x06, 0x00, 0x00, 0x00, 0x00, 0x00, 0x00, 0x01, 0x01, 0x00, 0x00, 0x00,
  0x0f, 0x00, 0x00, 0x00, 0x03, 0x00, 0x00, 0x00, 0x0e, 0x00, 0x00, 0x00,
  0x04, 0x00, 0x00, 0x00, 0x01, 0x00, 0x00, 0x00, 0xfe, 0xfc, 0xff, 0xff,
  0x00, 0x00, 0x00, 0x09, 0x01, 0x00, 0x00, 0x00, 0xd6, 0xd2, 0xff, 0xff,
  0x10, 0x00, 0x00, 0x00, 0x10, 0x00, 0x00, 0x00, 0x14, 0x00, 0x00, 0x00,
  0x2c, 0x00, 0x00, 0x00, 0x02, 0x00, 0x00, 0x00, 0x01, 0x00, 0x00, 0x00,
  0x10, 0x00, 0x00, 0x00, 0x15, 0x00, 0x00, 0x00, 0x73, 0x65, 0x71, 0x75,
  0x65, 0x6e, 0x74, 0x69, 0x61, 0x6c, 0x2f, 0x64, 0x65, 0x6e, 0x73, 0x65,
  0x2f, 0x52, 0x65, 0x6c, 0x75, 0x00, 0x00, 0x00, 0x1c, 0xd3, 0xff, 0xff,
  0x00, 0x00, 0x0a, 0x00, 0x10, 0x00, 0x04, 0x00, 0x08, 0x00, 0x0c, 0x00,
  0x0a, 0x00, 0x00, 0x00, 0x02, 0x00, 0x00, 0x00, 0x10, 0x00, 0x00, 0x00,
  0x04, 0x00, 0x00, 0x00, 0x01, 0x00, 0x00, 0x00, 0x0e, 0x00, 0x00, 0x00,
  0x02, 0x00, 0x00, 0x00, 0x0d, 0x00, 0x00, 0x00, 0x03, 0x00, 0x00, 0x00,
  0x7a, 0xfd, 0xff, 0xff, 0x00, 0x00, 0x00, 0x16, 0x01, 0x00, 0x00, 0x00,
  0x52, 0xd3, 0xff, 0xff, 0x10, 0x00, 0x00, 0x00, 0x0f, 0x00, 0x00, 0x00,
  0x14, 0x00, 0x00, 0x00, 0x30, 0x00, 0x00, 0x00, 0x02, 0x00, 0x00, 0x00,
  0x01, 0x00, 0x00, 0x00, 0x70, 0x00, 0x00, 0x00, 0x1a, 0x00, 0x00, 0x00,
  0x73, 0x65, 0x71, 0x75, 0x65, 0x6e, 0x74, 0x69, 0x61, 0x6c, 0x2f, 0x66,
  0x6c, 0x61, 0x74, 0x74, 0x65, 0x6e, 0x2f, 0x52, 0x65, 0x73, 0x68, 0x61,
  0x70, 0x65, 0x00, 0x00, 0x44, 0xd3, 0xff, 0xff, 0xe2, 0xfe, 0xff, 0xff,
  0x00, 0x00, 0x00, 0x05, 0x01, 0x00, 0x00, 0x00, 0x38, 0x00, 0x00, 0x00,
  0x2c, 0x00, 0x00, 0x00, 0x14, 0x00, 0x00, 0x00, 0x00, 0x00, 0x0e, 0x00,
  0x14, 0x00, 0x00, 0x00, 0x10, 0x00, 0x0c, 0x00, 0x08, 0x00, 0x04, 0x00,
  0x0e, 0x00, 0x00, 0x00, 0x03, 0x00, 0x00, 0x00, 0x01, 0x00, 0x00, 0x00,
  0x03, 0x00, 0x00, 0x00, 0x01, 0x00, 0x00, 0x00, 0x01, 0x00, 0x00, 0x00,
  0x0d, 0x00, 0x00, 0x00, 0x01, 0x00, 0x00, 0x00, 0x0c, 0x00, 0x00, 0x00,
  0xe2, 0xd3, 0xff, 0xff, 0x10, 0x00, 0x00, 0x00, 0x0e, 0x00, 0x00, 0x00,
  0x1c, 0x00, 0x00, 0x00, 0x40, 0x00, 0x00, 0x00, 0x04, 0x00, 0x00, 0x00,
  0x01, 0x00, 0x00, 0x00, 0x07, 0x00, 0x00, 0x00, 0x01, 0x00, 0x00, 0x00,
  0x10, 0x00, 0x00, 0x00, 0x22, 0x00, 0x00, 0x00, 0x73, 0x65, 0x71, 0x75,
  0x65, 0x6e, 0x74, 0x69, 0x61, 0x6c, 0x2f, 0x6d, 0x61, 0x78, 0x5f, 0x70,
  0x6f, 0x6f, 0x6c, 0x69, 0x6e, 0x67, 0x32, 0x64, 0x5f, 0x31, 0x2f, 0x4d,
  0x61, 0x78, 0x50, 0x6f, 0x6f, 0x6c, 0x00, 0x00, 0xe4, 0xd3, 0xff, 0xff,
  0xc2, 0xfe, 0xff, 0xff, 0x00, 0x00, 0x00, 0x01, 0x24, 0x00, 0x00, 0x00,
  0x18, 0x00, 0x00, 0x00, 0x04, 0x00, 0x00, 0x00, 0xb4, 0xfe, 0xff, 0xff,
  0x01, 0x00, 0x00, 0x00, 0x01, 0x00, 0x00, 0x00, 0x00, 0x00, 0x00, 0x01,
  0x01, 0x00, 0x00, 0x00, 0x0c, 0x00, 0x00, 0x00, 0x03, 0x00, 0x00, 0x00,
  0x0b, 0x00, 0x00, 0x00, 0x07, 0x00, 0x00, 0x00, 0x09, 0x00, 0x00, 0x00,
  0x72, 0xd4, 0xff, 0xff, 0x10, 0x00, 0x00, 0x00, 0x0d, 0x00, 0x00, 0x00,
  0x1c, 0x00, 0x00, 0x00, 0x2c, 0x00, 0x00, 0x00, 0x04, 0x00, 0x00, 0x00,
  0x01, 0x00, 0x00, 0x00, 0x15, 0x00, 0x00, 0x00, 0x01, 0x00, 0x00, 0x00,
  0x10, 0x00, 0x00, 0x00, 0x0c, 0x00, 0x00, 0x00, 0x74, 0x66, 0x6c, 0x2e,
  0x63, 0x6f, 0x6e, 0x76, 0x5f, 0x32, 0x64, 0x31, 0x00, 0x00, 0x00, 0x00,
  0xb8, 0xd4, 0xff, 0xff, 0x00, 0x00, 0x0e, 0x00, 0x1a, 0x00, 0x08, 0x00,
  0x0c, 0x00, 0x10, 0x00, 0x07, 0x00, 0x14, 0x00, 0x0e, 0x00, 0x00, 0x00,
  0x00, 0x00, 0x00, 0x05, 0x01, 0x00, 0x00, 0x00, 0x3c, 0x00, 0x00, 0x00,
  0x30, 0x00, 0x00, 0x00, 0x14, 0x00, 0x00, 0x00, 0x00, 0x00, 0x0e, 0x00,
  0x18, 0x00, 0x17, 0x00, 0x10, 0x00, 0x0c, 0x00, 0x08, 0x00, 0x04, 0x00,
  0x0e, 0x00, 0x00, 0x00, 0x03, 0x00, 0x00, 0x00, 0x03, 0x00, 0x00, 0x00,
  0x03, 0x00, 0x00, 0x00, 0x03, 0x00, 0x00, 0x00, 0x00, 0x00, 0x00, 0x01,
  0x01, 0x00, 0x00, 0x00, 0x0b, 0x00, 0x00, 0x00, 0x01, 0x00, 0x00, 0x00,
  0x0a, 0x00, 0x00, 0x00, 0x46, 0xff, 0xff, 0xff, 0x00, 0x00, 0x00, 0x11,
  0x01, 0x00, 0x00, 0x00, 0x1e, 0xd5, 0xff, 0xff, 0x10, 0x00, 0x00, 0x00,
  0x0c, 0x00, 0x00, 0x00, 0x1c, 0x00, 0x00, 0x00, 0x40, 0x00, 0x00, 0x00,
  0x04, 0x00, 0x00, 0x00, 0x01, 0x00, 0x00, 0x00, 0x15, 0x00, 0x00, 0x00,
  0x01, 0x00, 0x00, 0x00, 0x08, 0x00, 0x00, 0x00, 0x20, 0x00, 0x00, 0x00,
  0x73, 0x65, 0x71, 0x75, 0x65, 0x6e, 0x74, 0x69, 0x61, 0x6c, 0x2f, 0x6d,
  0x61, 0x78, 0x5f, 0x70, 0x6f, 0x6f, 0x6c, 0x69, 0x6e, 0x67, 0x32, 0x64,
  0x2f, 0x4d, 0x61, 0x78, 0x50, 0x6f, 0x6f, 0x6c, 0x00, 0x00, 0x00, 0x00,
  0x78, 0xd5, 0xff, 0xff, 0x00, 0x00, 0x0e, 0x00, 0x14, 0x00, 0x00, 0x00,
  0x08, 0x00, 0x0c, 0x00, 0x07, 0x00, 0x10, 0x00, 0x0e, 0x00, 0x00, 0x00,
  0x00, 0x00, 0x00, 0x01, 0x30, 0x00, 0x00, 0x00, 0x24, 0x00, 0x00, 0x00,
  0x10, 0x00, 0x00, 0x00, 0x0c, 0x00, 0x10, 0x00, 0x00, 0x00, 0x04, 0x00,
  0x08, 0x00, 0x0f, 0x00, 0x0c, 0x00, 0x00, 0x00, 0x01, 0x00, 0x00, 0x00,
  0x01, 0x00, 0x00, 0x00, 0x00, 0x00, 0x00, 0x01, 0x01, 0x00, 0x00, 0x00,
  0x0a, 0x00, 0x00, 0x00, 0x03, 0x00, 0x00, 0x00, 0x00, 0x00, 0x00, 0x00,
  0x06, 0x00, 0x00, 0x00, 0x08, 0x00, 0x00, 0x00, 0x00, 0x00, 0x0a, 0x00,
  0x0c, 0x00, 0x07, 0x00, 0x00, 0x00, 0x08, 0x00, 0x0a, 0x00, 0x00, 0x00,
  0x00, 0x00, 0x00, 0x03, 0x01, 0x00, 0x00, 0x00, 0xe2, 0xd5, 0xff, 0xff,
  0x10, 0x00, 0x00, 0x00, 0x0b, 0x00, 0x00, 0x00, 0x1c, 0x00, 0x00, 0x00,
  0x28, 0x00, 0x00, 0x00, 0x04, 0x00, 0x00, 0x00, 0x01, 0x00, 0x00, 0x00,
  0x40, 0x00, 0x00, 0x00, 0x03, 0x00, 0x00, 0x00, 0x08, 0x00, 0x00, 0x00,
  0x0b, 0x00, 0x00, 0x00, 0x74, 0x66, 0x6c, 0x2e, 0x63, 0x6f, 0x6e, 0x76,
  0x5f, 0x32, 0x64, 0x00, 0xcc, 0xd5, 0xff, 0xff, 0xc2, 0xd6, 0xff, 0xff,
  0x04, 0x00, 0x00, 0x00, 0x40, 0x00, 0x00, 0x00, 0x76, 0xf6, 0x82, 0x3f,
  0x95, 0x59, 0x08, 0xc0, 0x2f, 0x6d, 0x75, 0x3f, 0xdf, 0x36, 0x43, 0xbe,
  0x12, 0x6b, 0x2a, 0xc0, 0xf3, 0xb5, 0x71, 0xbf, 0x16, 0x2d, 0x12, 0xc0,
  0x5f, 0xdb, 0x81, 0x40, 0x8a, 0x59, 0x49, 0x3f, 0x9f, 0x52, 0x94, 0xbf,
  0xd9, 0x4a, 0x9d, 0xbf, 0xc7, 0xb5, 0x7c, 0xbf, 0xb3, 0x54, 0x18, 0x3f,
  0xae, 0xdb, 0x84, 0x3f, 0xff, 0x97, 0x20, 0xc0, 0xf1, 0x83, 0x5c, 0x3f,
  0x6a, 0xd6, 0xff, 0xff, 0x10, 0x00, 0x00, 0x00, 0x0a, 0x00, 0x00, 0x00,
  0x10, 0x00, 0x00, 0x00, 0x20, 0x00, 0x00, 0x00, 0x01, 0x00, 0x00, 0x00,
  0x10, 0x00, 0x00, 0x00, 0x0d, 0x00, 0x00, 0x00, 0x73, 0x74, 0x64, 0x2e,
  0x63, 0x6f, 0x6e, 0x73, 0x74, 0x61, 0x6e, 0x74, 0x31, 0x00, 0x00, 0x00,
  0x4c, 0xd6, 0xff, 0xff, 0x42, 0xd7, 0xff, 0xff, 0x04, 0x00, 0x00, 0x00,
  0x20, 0x00, 0x00, 0x00, 0xfc, 0x2c, 0x37, 0xc0, 0x62, 0xa5, 0xba, 0x3e,
  0xc5, 0x85, 0x25, 0xc0, 0xd4, 0x13, 0x32, 0xc0, 0xae, 0xbd, 0x75, 0xbf,
  0x89, 0x97, 0x99, 0xbf, 0xbf, 0x05, 0x2c, 0xc0, 0x66, 0x1b, 0xbd, 0x3f,
  0xca, 0xd6, 0xff, 0xff, 0x10, 0x00, 0x00, 0x00, 0x09, 0x00, 0x00, 0x00,
  0x10, 0x00, 0x00, 0x00, 0x20, 0x00, 0x00, 0x00, 0x01, 0x00, 0x00, 0x00,
  0x08, 0x00, 0x00, 0x00, 0x0c, 0x00, 0x00, 0x00, 0x73, 0x74, 0x64, 0x2e,
  0x63, 0x6f, 0x6e, 0x73, 0x74, 0x61, 0x6e, 0x74, 0x00, 0x00, 0x00, 0x00,
  0xac, 0xd6, 0xff, 0xff, 0xa2, 0xd7, 0xff, 0xff, 0x04, 0x00, 0x00, 0x00,
  0x00, 0x08, 0x00, 0x00, 0xb1, 0x63, 0xa7, 0xbe, 0x9d, 0x1e, 0x00, 0xbe,
  0xa9, 0x1d, 0xae, 0xbe, 0xac, 0xb2, 0xc1, 0xbe, 0x4c, 0x98, 0xc6, 0x3d,
  0x3c, 0x2b, 0x76, 0x3b, 0x7d, 0x4e, 0xfe, 0xbd, 0x89, 0x1f, 0x40, 0xbe,
  0x61, 0xcd, 0x46, 0x3e, 0x50, 0xb1, 0x3a, 0x3e, 0x58, 0x52, 0xc5, 0xbe,
  0x53, 0xbd, 0x46, 0xbe, 0x2f, 0x02, 0x26, 0x3e, 0x31, 0x77, 0xa5, 0x3e,
  0xd1, 0x6d, 0xbf, 0xbd, 0x21, 0x99, 0x55, 0x3d, 0xa8, 0x05, 0x19, 0xbe,
  0x48, 0x16, 0x74, 0x3e, 0xec, 0x0f, 0xc9, 0xbe, 0xe4, 0x7e, 0x02, 0xbe,
  0xba, 0xc3, 0x09, 0x3e, 0xb6, 0x43, 0x9d, 0xbd, 0xcb, 0x82, 0x51, 0xbe,
  0xd7, 0xcc, 0xce, 0x3b, 0xad, 0x95, 0x1a, 0xbe, 0x30, 0xed, 0x10, 0xbe,
  0x0b, 0x8c, 0xa2, 0xbe, 0x8c, 0x6e, 0xde, 0xbd, 0xd1, 0xe9, 0x8d, 0x3d,
  0x1a, 0x2c, 0xca, 0x3d, 0x34, 0x96, 0x92, 0xbc, 0xb6, 0x55, 0x52, 0x3b,
  0xa0, 0x91, 0x89, 0x3d, 0x08, 0xee, 0xc7, 0xbe, 0xae, 0xfb, 0x02, 0x3f,
  0xec, 0x32, 0x53, 0x3e, 0x9d, 0xf9, 0xb4, 0x3d, 0x0f, 0x9a, 0xc2, 0x3e,
  0x9d, 0x94, 0x71, 0x3e, 0x23, 0x3f, 0x23, 0xbd, 0x8d, 0xa8, 0xe1, 0x3d,
  0x14, 0x5e, 0xc0, 0xbe, 0xfa, 0xb3, 0xb1, 0xbd, 0xf5, 0x5a, 0xcf, 0xbe,
  0xf8, 0xc5, 0xbf, 0xbb, 0x2b, 0x84, 0xa8, 0xbd, 0x86, 0xb2, 0x94, 0xbc,
  0x3d, 0x7a, 0xd5, 0xbd, 0xaa, 0x23, 0xd6, 0x3e, 0xa2, 0xfe, 0x6b, 0xbe,
  0xc8, 0x1d, 0x14, 0xbe, 0x3e, 0x0d, 0x0d, 0xbf, 0xb6, 0xad, 0x04, 0xbd,
  0xea, 0x55, 0xb1, 0xbd, 0x34, 0xa2, 0x81, 0xbd, 0x79, 0xf9, 0x81, 0xbd,
  0x81, 0xaa, 0x1d, 0x3e, 0x4f, 0xc7, 0xb6, 0xbd, 0x78, 0xed, 0x62, 0xbe,
  0x04, 0x2f, 0x82, 0xbe, 0x8e, 0x58, 0xb2, 0xbd, 0x28, 0x1d, 0x2a, 0xbe,
  0x60, 0x61, 0x3c, 0xbe, 0xd9, 0xda, 0xb2, 0xbd, 0x3c, 0xda, 0x80, 0xbe,
  0xa4, 0x82, 0x22, 0xbe, 0xea, 0xd8, 0xc8, 0xbd, 0x07, 0xe6, 0x62, 0xbc,
  0x5d, 0xa3, 0xf9, 0xbd, 0x9b, 0x27, 0xfc, 0xbd, 0x04, 0x9b, 0x03, 0xbe,
  0xa9, 0x63, 0xd1, 0x3d, 0xa3, 0xc4, 0x66, 0xbe, 0xbb, 0x3b, 0xef, 0xbd,
  0x97, 0x4c, 0x8f, 0x3b, 0x8c, 0x46, 0x9d, 0xbd, 0x5c, 0x25, 0x88, 0xbd,
  0xb7, 0x52, 0x54, 0xbe, 0xc1, 0x38, 0x9f, 0xbd, 0x17, 0xdc, 0x4e, 0x3c,
  0x55, 0x25, 0x65, 0x3c, 0x3c, 0x26, 0x22, 0xbe, 0xfe, 0x2a, 0x27, 0x3c,
  0x9a, 0x9f, 0x97, 0x3c, 0x25, 0x46, 0x96, 0xbd, 0x85, 0x96, 0x38, 0xbe,
  0x5f, 0x55, 0x96, 0x3e, 0xec, 0xd8, 0xaa, 0xbd, 0x3c, 0x28, 0x9c, 0x3e,
  0xb9, 0x7b, 0xb3, 0x3e, 0xea, 0x5c, 0x54, 0x3b, 0x0c, 0xb2, 0xfb, 0xbc,
  0x32, 0x38, 0x24, 0xbe, 0xba, 0x71, 0x93, 0x3d, 0x39, 0xb3, 0x43, 0xbf,
  0x1b, 0x9b, 0xd5, 0xbd, 0x34, 0x09, 0xc3, 0x3c, 0xca, 0x0c, 0x53, 0x3d,
  0xdf, 0x7b, 0x93, 0x3d, 0x61, 0xc8, 0x25, 0xbe, 0xcb, 0x9c, 0x0a, 0x3e,
  0x3d, 0x9f, 0xd9, 0x3d, 0x74, 0xdb, 0x6c, 0xbe, 0x76, 0x1c, 0x07, 0x3d,
  0x3f, 0xfb, 0x09, 0xbe, 0xff, 0xfe, 0xff, 0xbd, 0xc1, 0x1d, 0xb0, 0xbd,
  0x12, 0xb0, 0x22, 0xbd, 0xd2, 0x32, 0x5e, 0xbe, 0x51, 0xf3, 0x9c, 0xbd,
  0x9c, 0xe9, 0xcd, 0xbc, 0xb8, 0x95, 0x87, 0xbe, 0xbb, 0x86, 0xca, 0x3c,
  0xc4, 0x58, 0x25, 0xbe, 0xbd, 0x1a, 0x8c, 0x3d, 0x33, 0xfc, 0x15, 0x3d,
  0x3b, 0x86, 0x8c, 0x3d, 0xbd, 0x66, 0x99, 0xbd, 0x2b, 0x0c, 0x0b, 0xbe,
  0x07, 0x52, 0x1e, 0x3e, 0x82, 0x93, 0x70, 0xbd, 0xdd, 0xff, 0x0c, 0xbd,
  0xd2, 0x6a, 0x8e, 0xbe, 0x66, 0x97, 0x88, 0xbe, 0x35, 0x70, 0x8a, 0xbd,
  0xb9, 0x5c, 0x34, 0x3d, 0x8c, 0xa3, 0x84, 0xbd, 0xa4, 0xe5, 0xc7, 0xbe,
  0x3d, 0xc3, 0xef, 0x3d, 0xd3, 0xa2, 0x12, 0xbe, 0x32, 0x05, 0xb1, 0xbe,
  0xb6, 0x4c, 0x04, 0xbf, 0x4b, 0x6c, 0xb1, 0xbd, 0x1c, 0x0f, 0xb9, 0xbe,
  0xae, 0xe2, 0x49, 0xbd, 0x74, 0x20, 0xe6, 0x3d, 0x5e, 0x69, 0xaa, 0x3d,
  0x98, 0x38, 0x84, 0x3e, 0x78, 0x8e, 0x92, 0xbc, 0x69, 0x79, 0x83, 0xbd,
  0x32, 0x68, 0x32, 0xbf, 0x9d, 0x91, 0x5b, 0xbc, 0x5b, 0x93, 0xf4, 0x3e,
  0x19, 0x41, 0xa9, 0xbe, 0x23, 0xaa, 0xe8, 0x3e, 0xce, 0xc5, 0x07, 0xbe,
  0x91, 0x21, 0xd7, 0xbe, 0x66, 0xf1, 0x22, 0x3e, 0x30, 0x1e, 0x71, 0xbe,
  0x0a, 0xcd, 0x04, 0xbe, 0x21, 0xe1, 0xf3, 0xbd, 0xc0, 0x5a, 0x20, 0xbd,
  0x3f, 0x82, 0x94, 0xbd, 0x44, 0xd3, 0xd2, 0xbe, 0xb9, 0xca, 0x86, 0xbd,
  0xfa, 0x62, 0x59, 0x3e, 0x11, 0xc1, 0x64, 0x3e, 0x8b, 0xc8, 0x03, 0x3d,
  0x42, 0x99, 0x47, 0xbe, 0xaf, 0xf1, 0xb1, 0x3e, 0x57, 0xbf, 0x6f, 0xbf,
  0xbe, 0xf7, 0x0d, 0xbf, 0xf8, 0x35, 0x4b, 0xbe, 0x34, 0xeb, 0x55, 0xbf,
  0xe2, 0x18, 0x9d, 0x3e, 0x37, 0x21, 0xfd, 0xbc, 0xb6, 0x47, 0x31, 0xbf,
  0x47, 0xda, 0x72, 0xbe, 0xae, 0x3c, 0x6d, 0xbd, 0xfc, 0x0c, 0xd8, 0x3d,
  0xee, 0xfd, 0xe2, 0x3e, 0x77, 0xc5, 0x30, 0xbe, 0x49, 0x0f, 0x8e, 0xbe,
  0xf9, 0x20, 0xd1, 0x3e, 0x74, 0x97, 0x9d, 0x3c, 0x4f, 0xe0, 0x70, 0xbc,
  0xe8, 0x1c, 0x5c, 0x3e, 0x27, 0xfe, 0x1a, 0xbc, 0xf4, 0x58, 0x43, 0x3d,
  0x3d, 0xec, 0x60, 0x3d, 0xd6, 0x26, 0x7c, 0xbe, 0x09, 0x54, 0x19, 0xbe,
  0xb9, 0x92, 0xfb, 0x3d, 0x0d, 0xf7, 0x3e, 0xbe, 0xf1, 0x2b, 0x55, 0xbe,
  0xb4, 0x8b, 0xcc, 0xbc, 0xe0, 0x55, 0x02, 0xbf, 0x0d, 0x5e, 0xb7, 0xbe,
  0xbe, 0x6f, 0xa6, 0xbe, 0xe0, 0xb7, 0x66, 0xbe, 0x26, 0xe6, 0xbd, 0xbe,
  0x62, 0x9b, 0x9c, 0xbe, 0xe8, 0xfa, 0xfb, 0x3d, 0x4c, 0xca, 0x29, 0x3d,
  0x01, 0xac, 0xd0, 0x3e, 0x5f, 0x11, 0x1c, 0xbf, 0x62, 0xad, 0xcf, 0xbe,
  0xcc, 0x5c, 0xc3, 0x3d, 0x0f, 0x21, 0x90, 0xbe, 0x23, 0x5e, 0xc6, 0xbe,
  0x99, 0xfc, 0x26, 0xbd, 0xd2, 0x48, 0x26, 0x3e, 0x87, 0xc5, 0x97, 0xbe,
  0x1c, 0xc4, 0xa6, 0x3e, 0x39, 0xef, 0x52, 0xbf, 0x0f, 0x89, 0x38, 0xbd,
  0xdb, 0xf2, 0x9a, 0x3e, 0x3b, 0x84, 0x24, 0xbf, 0xb6, 0x1f, 0x92, 0x3e,
  0x41, 0xa7, 0x8a, 0xbe, 0x09, 0xf0, 0x7d, 0xbe, 0x6c, 0x39, 0x27, 0x3e,
  0xcb, 0x8b, 0xe5, 0xbd, 0xd6, 0x7b, 0x94, 0xbd, 0x65, 0x17, 0xa0, 0xbc,
  0x34, 0x19, 0x0a, 0xbe, 0x47, 0xba, 0x0e, 0xbd, 0x0e, 0x5e, 0x87, 0xbe,
  0x0a, 0x89, 0xad, 0x3c, 0x01, 0x15, 0x4e, 0xbe, 0xa9, 0x67, 0xd5, 0x3e,
  0x11, 0x60, 0xf8, 0x3c, 0xed, 0x4f, 0x58, 0xbe, 0x5c, 0x19, 0x32, 0x3e,
  0xf6, 0x51, 0xc3, 0xbe, 0x48, 0x03, 0xc2, 0xbe, 0xb0, 0x18, 0x33, 0x3d,
  0x08, 0xc5, 0x11, 0xbe, 0x85, 0x00, 0xab, 0xbc, 0x1a, 0xd1, 0xa9, 0xbd,
  0x89, 0x33, 0x97, 0xbe, 0xea, 0xb0, 0xcb, 0x3d, 0x3b, 0xad, 0x97, 0xbe,
  0xd0, 0x2e, 0x53, 0xbe, 0xed, 0x68, 0xac, 0x3d, 0xf4, 0xa5, 0x27, 0xbe,
  0x2f, 0xfd, 0x10, 0xbd, 0x4d, 0x4d, 0x69, 0x3d, 0x45, 0xc9, 0x08, 0x3e,
  0xf6, 0xad, 0xa3, 0x3d, 0x63, 0x14, 0xc3, 0xbe, 0xf4, 0x10, 0x06, 0xbe,
  0x0a, 0x69, 0xc2, 0x3c, 0xd7, 0x32, 0x46, 0xbe, 0x97, 0x49, 0xbf, 0xbc,
  0xeb, 0xda, 0x6d, 0x3d, 0x88, 0xa0, 0x66, 0xbe, 0x8d, 0xf6, 0xa6, 0xbb,
  0xa1, 0xec, 0x26, 0xbe, 0x9c, 0x9e, 0xe5, 0x3b, 0x08, 0x98, 0x18, 0xbd,
  0xa1, 0x76, 0xbc, 0xbd, 0x24, 0xc2, 0x09, 0x3e, 0x15, 0xff, 0xa6, 0x3d,
  0x04, 0x5d, 0x56, 0xbe, 0x5b, 0x1b, 0x7a, 0x37, 0xd7, 0xa6, 0x9c, 0xbd,
  0xf5, 0x45, 0xf0, 0xbd, 0xd9, 0x77, 0xce, 0x3e, 0xb5, 0x54, 0xd6, 0xbc,
  0x0c, 0x7d, 0x3f, 0xb9, 0x6e, 0x47, 0x6b, 0x3c, 0x08, 0x3d, 0x2e, 0x3e,
  0xe5, 0x1c, 0xd3, 0x3d, 0xef, 0xe4, 0xd6, 0x3d, 0xf4, 0xc6, 0x99, 0x3e,
  0xfa, 0x44, 0xf8, 0xbb, 0x0d, 0x6a, 0x56, 0x3d, 0xe5, 0x9c, 0xc4, 0x3d,
  0xda, 0x3c, 0x5f, 0x3e, 0x4e, 0xd2, 0x11, 0x3d, 0x99, 0x56, 0xe2, 0xbc,
  0xb5, 0x24, 0xf0, 0x3d, 0xda, 0x67, 0x4a, 0x3e, 0xed, 0x98, 0x03, 0xbd,
  0xa8, 0xf5, 0x63, 0xbd, 0xe7, 0x27, 0x5a, 0xbc, 0x5d, 0xcf, 0x0b, 0x3c,
  0x21, 0xa1, 0x0a, 0xbc, 0xb5, 0xd9, 0x02, 0x3e, 0xc0, 0x0d, 0x2a, 0xbd,
  0x03, 0xb2, 0x1a, 0x3e, 0xc9, 0x5b, 0xe9, 0xbc, 0x61, 0x9c, 0xb2, 0xbd,
  0x29, 0x70, 0x59, 0xbd, 0xb3, 0x45, 0x4b, 0x3d, 0xd4, 0x77, 0xbe, 0xbd,
  0x2b, 0x14, 0xc5, 0xbd, 0xd3, 0x04, 0x41, 0xbf, 0x77, 0x9f, 0x49, 0xbe,
  0xf4, 0x9e, 0xd1, 0x3d, 0x38, 0x31, 0xdd, 0xbe, 0x6d, 0xa3, 0x8d, 0xbd,
  0xf1, 0xf1, 0x72, 0xbe, 0x90, 0xb8, 0x17, 0xbf, 0x81, 0xd7, 0x6e, 0x3e,
  0x60, 0xef, 0x08, 0xbe, 0x48, 0x99, 0xb9, 0xbd, 0x0b, 0x97, 0x4e, 0x3e,
  0x68, 0x49, 0x4f, 0xbf, 0xbb, 0x66, 0x9c, 0xbe, 0x57, 0xc5, 0x1b, 0x3e,
  0xb4, 0x7e, 0x46, 0x3e, 0x1b, 0x37, 0xeb, 0x3c, 0xfc, 0x08, 0x82, 0x3e,
  0x79, 0x10, 0x3e, 0x3d, 0x54, 0x48, 0x77, 0x3c, 0x63, 0xab, 0x68, 0xbc,
  0x4d, 0x4f, 0x28, 0xbf, 0xc2, 0xaf, 0x34, 0xbe, 0x39, 0x09, 0x83, 0x3e,
  0x75, 0x0d, 0xfa, 0xbe, 0x46, 0xbd, 0xfa, 0x3d, 0x1d, 0x93, 0x96, 0x3d,
  0xf5, 0xd9, 0x91, 0xbe, 0x19, 0x9e, 0x31, 0x3e, 0x2f, 0xbc, 0xd2, 0xbe,
  0x5b, 0x28, 0x79, 0xbe, 0x9b, 0x58, 0x51, 0x3e, 0x2f, 0x0d, 0x20, 0xbe,
  0xe0, 0x50, 0xe0, 0xbe, 0x17, 0x81, 0xe3, 0xbd, 0x8c, 0xa7, 0x5d, 0xbe,
  0xbb, 0x53, 0x52, 0xbd, 0x3e, 0x5d, 0x6d, 0xbe, 0xb8, 0xb7, 0x88, 0xbe,
  0xe1, 0x9d, 0xc1, 0xbe, 0x19, 0xb7, 0x22, 0xbc, 0xc6, 0xaa, 0xb6, 0xbe,
  0xf7, 0xb1, 0x3f, 0xbe, 0x1b, 0xaf, 0x2a, 0xbe, 0x34, 0x2b, 0x07, 0xbe,
  0x9e, 0x03, 0x1f, 0xbe, 0x43, 0xe5, 0xaa, 0xbe, 0xcb, 0xeb, 0xb5, 0xbe,
  0x17, 0xf6, 0x93, 0x3d, 0x1d, 0x38, 0xf3, 0xbd, 0x04, 0xd5, 0x17, 0x3d,
  0xe6, 0x15, 0x6c, 0xbc, 0xf4, 0xd8, 0x27, 0xbe, 0x8a, 0x1e, 0x05, 0xbe,
  0xc6, 0x83, 0xfa, 0x3d, 0xfe, 0x37, 0x31, 0x3e, 0x5c, 0xa4, 0x91, 0x3c,
  0xbc, 0xaa, 0xbe, 0x3e, 0xd8, 0x6d, 0x6f, 0x3e, 0x2a, 0xaa, 0x51, 0xbd,
  0x77, 0x3a, 0x67, 0xbd, 0xa5, 0x09, 0x45, 0xbe, 0xa8, 0x94, 0x17, 0xbe,
  0x5a, 0x95, 0x16, 0x3f, 0xe0, 0x63, 0x64, 0xbc, 0x19, 0x64, 0x30, 0x3c,
  0xa6, 0x44, 0x65, 0xbe, 0x0d, 0xe7, 0xb7, 0x3e, 0x0a, 0x71, 0x28, 0xbd,
  0x14, 0xe7, 0xab, 0x3e, 0x09, 0x6a, 0xda, 0x3e, 0xe5, 0x7c, 0xd6, 0x39,
  0x4c, 0x84, 0xd4, 0xbd, 0x34, 0x43, 0x9f, 0x3d, 0x87, 0x29, 0xb9, 0xbe,
  0xcd, 0x71, 0x5d, 0xbe, 0x4e, 0x18, 0x6f, 0xbd, 0x1c, 0x76, 0x10, 0x3c,
  0xcf, 0x87, 0xd7, 0xbd, 0x5c, 0x34, 0x20, 0xbe, 0xfb, 0xc7, 0x1a, 0xbe,
  0x97, 0x6e, 0x8e, 0x3e, 0x9b, 0xcb, 0x54, 0xbe, 0xfb, 0xb2, 0x8a, 0xbe,
  0x9f, 0x3a, 0xf7, 0xbc, 0xf6, 0x93, 0x37, 0xbd, 0xec, 0x71, 0x8f, 0xbe,
  0xff, 0xc0, 0x8f, 0x3c, 0x7e, 0x48, 0x17, 0xbe, 0xe5, 0xa5, 0xe8, 0x3e,
  0x7f, 0x43, 0x12, 0xbc, 0xba, 0x49, 0xce, 0xbe, 0x62, 0x33, 0xf4, 0xbc,
  0xe3, 0x22, 0x35, 0xbe, 0xed, 0x5a, 0xd4, 0xbe, 0x2f, 0xea, 0x86, 0xbd,
  0x40, 0x1b, 0x55, 0xbd, 0x6f, 0xc6, 0x02, 0xbe, 0x9d, 0x05, 0x5b, 0x3e,
  0x00, 0x23, 0x62, 0x3d, 0x04, 0x4e, 0xb2, 0x3e, 0x38, 0x0e, 0xc1, 0xbd,
  0x61, 0x64, 0xca, 0xbc, 0x29, 0xef, 0x05, 0x3f, 0x62, 0x37, 0xc5, 0xbb,
  0x9d, 0xdd, 0xa4, 0x3d, 0x46, 0x96, 0x38, 0xbc, 0xef, 0xf6, 0xa8, 0x3c,
  0x91, 0x90, 0x1b, 0x3e, 0x8d, 0x53, 0x33, 0xbd, 0x87, 0x30, 0x56, 0xbd,
  0x9b, 0x4b, 0xcd, 0x3c, 0x49, 0x10, 0x60, 0xbc, 0x79, 0x1d, 0xc7, 0x3c,
  0x39, 0x3b, 0x31, 0x3e, 0x5e, 0x6a, 0x65, 0xbd, 0x3f, 0xb2, 0xb3, 0x3d,
  0x28, 0xe3, 0xa7, 0xbd, 0x43, 0x9a, 0xc8, 0xbd, 0x7c, 0xee, 0x23, 0xbe,
  0x9f, 0xee, 0x1b, 0x3e, 0x4c, 0xc9, 0x8a, 0xbd, 0x7e, 0x0e, 0x75, 0xbd,
  0x86, 0xcf, 0x7d, 0x3d, 0x49, 0xbd, 0x82, 0xbd, 0x8a, 0x5a, 0xb0, 0x3d,
  0xdd, 0xb1, 0xf7, 0xbd, 0x91, 0x33, 0x2e, 0xbe, 0x28, 0x72, 0x30, 0x3d,
  0x07, 0xef, 0xa4, 0xbe, 0x69, 0xae, 0x78, 0xbe, 0x94, 0x05, 0x26, 0x3e,
  0x46, 0x8a, 0xfd, 0xbd, 0xbf, 0x57, 0x17, 0xbe, 0xe6, 0xa9, 0xbf, 0xbd,
  0x4f, 0xbc, 0xa2, 0xbe, 0x10, 0x46, 0x28, 0x3d, 0xeb, 0xeb, 0x82, 0xbe,
  0xa7, 0x24, 0xb7, 0x3d, 0x39, 0xcf, 0x1f, 0xbe, 0xe5, 0x75, 0xa2, 0xbe,
  0x4d, 0x52, 0x11, 0xbd, 0x1b, 0xa7, 0x57, 0xbe, 0xfe, 0xf8, 0x21, 0x3e,
  0x5b, 0xe1, 0x86, 0x3e, 0xb2, 0x28, 0x8b, 0xbe, 0xe9, 0xf4, 0x24, 0xbe,
  0xa4, 0x79, 0x1b, 0xbc, 0x12, 0xe8, 0x96, 0x3d, 0x0f, 0x75, 0x82, 0xbe,
  0x88, 0x0c, 0x7c, 0xbe, 0xcc, 0xa5, 0xb2, 0xbe, 0x55, 0xc8, 0xf5, 0x3c,
  0x0a, 0xe2, 0x59, 0xbe, 0x81, 0x5b, 0xb5, 0xbd, 0xbc, 0xb6, 0xa1, 0xbe,
  0x39, 0x62, 0xcd, 0xbc, 0xc8, 0x39, 0x8a, 0xbe, 0x79, 0x60, 0xde, 0xbd,
  0x9f, 0xe5, 0xaf, 0xba, 0x0c, 0xcf, 0xb3, 0xbd, 0xdd, 0x22, 0x91, 0xbc,
  0x22, 0xbf, 0x45, 0xbe, 0x96, 0x70, 0x63, 0xbe, 0xe8, 0x56, 0x36, 0x3e,
  0x13, 0xa4, 0x02, 0xbe, 0x05, 0x0c, 0x3e, 0xbe, 0xba, 0x2a, 0x0a, 0xbe,
  0xc0, 0x47, 0x34, 0x3c, 0x66, 0xe1, 0xe6, 0xbd, 0x87, 0x08, 0x05, 0xbf,
  0x28, 0x14, 0xab, 0xbd, 0x68, 0x8e, 0xc0, 0x3e, 0xb9, 0x36, 0x10, 0xbe,
  0x4f, 0xc3, 0x92, 0xbc, 0xbf, 0xb3, 0x9a, 0xbd, 0x19, 0xa3, 0xd0, 0xbd,
  0xc4, 0x3f, 0x10, 0x3f, 0x2a, 0x8c, 0xb5, 0xbe, 0x69, 0x6c, 0x03, 0x3e,
  0x15, 0x54, 0x24, 0x3e, 0xc0, 0x9d, 0x65, 0x3e, 0x60, 0xa5, 0x4d, 0x3e,
  0xbf, 0xb9, 0x7e, 0x3d, 0x57, 0x4d, 0x0e, 0xbd, 0x70, 0x1d, 0xc4, 0x3d,
  0x46, 0x8a, 0x03, 0xbf, 0xb4, 0x24, 0x4c, 0x3d, 0x4e, 0xb7, 0x21, 0xbf,
  0x5f, 0x6d, 0x3d, 0xbd, 0x55, 0x86, 0x06, 0xbe, 0xb4, 0x05, 0xbc, 0x3c,
  0xd3, 0xe7, 0xb6, 0xbd, 0xfb, 0xae, 0x58, 0x3d, 0xf0, 0x6c, 0x5a, 0x3e,
  0xa1, 0xe3, 0xf7, 0x3d, 0x05, 0x3f, 0xd0, 0x3e, 0x6c, 0xc4, 0x8a, 0xbe,
  0x0c, 0x01, 0x1c, 0xbe, 0xd5, 0xc2, 0x7b, 0x3e, 0x6c, 0xde, 0xf9, 0xbe,
  0xee, 0x23, 0xc6, 0x3d, 0xa8, 0x89, 0xc7, 0x3c, 0x93, 0xbd, 0xa4, 0xbd,
  0x33, 0x18, 0x8e, 0x3e, 0xad, 0x94, 0x97, 0xbe, 0xcf, 0x2e, 0x18, 0xbe,
  0x6a, 0xc6, 0xfe, 0x3d, 0xa4, 0x6c, 0x93, 0xbe, 0x69, 0x4d, 0x28, 0x3e,
  0x11, 0xb0, 0x48, 0x3d, 0xab, 0xaa, 0x66, 0x3d, 0x84, 0xd3, 0x4b, 0xbe,
  0xe7, 0x37, 0xac, 0xbd, 0xef, 0x1d, 0x8b, 0xbc, 0xf7, 0x6a, 0xd7, 0x3d,
  0x01, 0xc7, 0x2c, 0xbe, 0xd1, 0xf5, 0xae, 0x3d, 0x0e, 0x13, 0xe6, 0xbd,
  0xe5, 0xc2, 0x61, 0x3e, 0x9f, 0x41, 0x13, 0x3e, 0x53, 0x18, 0x34, 0xbd,
  0xb5, 0x7d, 0xe3, 0xbc, 0x2e, 0x50, 0x52, 0x3e, 0x29, 0xf5, 0x99, 0xbd,
  0x0a, 0xdf, 0xff, 0xff, 0x10, 0x00, 0x00, 0x00, 0x08, 0x00, 0x00, 0x00,
  0x1c, 0x00, 0x00, 0x00, 0x38, 0x00, 0x00, 0x00, 0x04, 0x00, 0x00, 0x00,
  0x10, 0x00, 0x00, 0x00, 0x04, 0x00, 0x00, 0x00, 0x01, 0x00, 0x00, 0x00,
  0x08, 0x00, 0x00, 0x00, 0x1a, 0x00, 0x00, 0x00, 0x73, 0x65, 0x71, 0x75,
  0x65, 0x6e, 0x74, 0x69, 0x61, 0x6c, 0x2f, 0x63, 0x6f, 0x6e, 0x76, 0x32,
  0x64, 0x5f, 0x31, 0x2f, 0x43, 0x6f, 0x6e, 0x76, 0x32, 0x44, 0x00, 0x00,
  0x04, 0xdf, 0xff, 0xff, 0xfa, 0xdf, 0xff, 0xff, 0x04, 0x00, 0x00, 0x00,
  0x80, 0x01, 0x00, 0x00, 0x0d, 0x9b, 0x05, 0xbf, 0x38, 0x65, 0x1b, 0x3e,
  0x6d, 0x5b, 0x2f, 0x3e, 0xe5, 0xb5, 0x57, 0x3d, 0x3b, 0xbe, 0x29, 0x3e,
  0x45, 0x77, 0x93, 0x3c, 0xd4, 0xa9, 0xc0, 0x3e, 0x04, 0x97, 0x4b, 0xbe,
  0x62, 0x9c, 0xd7, 0xbd, 0x24, 0x75, 0xde, 0x3d, 0x81, 0x8e, 0xe5, 0xbd,
  0x2b, 0x48, 0x99, 0xbd, 0xe9, 0x6a, 0x51, 0x3d, 0xd6, 0x42, 0x45, 0xbd,
  0xf5, 0x75, 0x2e, 0xbd, 0x79, 0x56, 0xec, 0x3d, 0xd4, 0x31, 0x09, 0x3d,
  0xb6, 0x16, 0x88, 0xbe, 0x4d, 0x18, 0x82, 0xbe, 0xb9, 0x96, 0x4e, 0xbe,
  0xe0, 0x69, 0xcd, 0x3e, 0x57, 0x8a, 0x98, 0x3e, 0x6d, 0x6b, 0x96, 0x3e,
  0xca, 0x96, 0xc3, 0xbd, 0xa7, 0xb0, 0xd0, 0x3c, 0x9d, 0x32, 0xb3, 0x3d,
  0xc8, 0x73, 0x8c, 0xbe, 0x28, 0xbd, 0x4f, 0xbe, 0x36, 0xa2, 0x0f, 0x3e,
  0x24, 0x55, 0xd0, 0xbe, 0x60, 0xfd, 0x2d, 0x3e, 0x2b, 0x81, 0xb8, 0xbd,
  0x22, 0x0a, 0xbd, 0x3d, 0xa7, 0x58, 0x44, 0xb9, 0x42, 0xab, 0x4e, 0xbe,
  0xc0, 0x9e, 0xb4, 0x3e, 0x70, 0x28, 0xcc, 0x3d, 0x0a, 0xda, 0x3f, 0xb9,
  0x13, 0xc0, 0x93, 0x3a, 0x42, 0xed, 0xed, 0x3e, 0x91, 0x13, 0xa3, 0x3e,
  0x35, 0xe5, 0x55, 0x3e, 0x5b, 0xe6, 0x52, 0xbe, 0x92, 0x29, 0x8e, 0xbd,
  0x1c, 0x46, 0xab, 0xbc, 0xfe, 0x2d, 0xa9, 0xbe, 0x5c, 0x32, 0x9c, 0xbe,
  0x26, 0x68, 0x78, 0xbe, 0xf4, 0xce, 0x80, 0x3c, 0xff, 0x44, 0x8d, 0xbe,
  0xb5, 0x4d, 0xc7, 0x3c, 0x82, 0x79, 0xd3, 0xbd, 0xd6, 0x6f, 0x77, 0x3c,
  0x40, 0x38, 0x7e, 0x3e, 0x27, 0xd8, 0xeb, 0xbc, 0x36, 0xfd, 0x91, 0x39,
  0xa6, 0xa6, 0xe9, 0xbd, 0xec, 0x58, 0xc3, 0xbd, 0xca, 0xdb, 0x34, 0x3d,
  0x44, 0x93, 0x17, 0x3d, 0x9c, 0xdb, 0x2d, 0x3d, 0x35, 0xaf, 0xbf, 0xbd,
  0x92, 0x79, 0x6d, 0x3d, 0xe8, 0xc6, 0x05, 0x3e, 0x9b, 0x08, 0xb2, 0xbd,
  0x5d, 0x92, 0x86, 0xbe, 0x57, 0x8f, 0xec, 0xbc, 0x95, 0xf6, 0xb4, 0xbd,
  0x0f, 0xbd, 0x64, 0x3e, 0x22, 0x97, 0x5a, 0xbe, 0x3f, 0xec, 0x4c, 0x3e,
  0x86, 0xbb, 0x60, 0x3e, 0x2b, 0x92, 0x06, 0x3d, 0x54, 0xee, 0x01, 0xbd,
  0x77, 0x59, 0xb3, 0xbd, 0xc5, 0x5b, 0x02, 0x3d, 0x89, 0xce, 0x62, 0xbe,
  0x2f, 0x30, 0x2f, 0xbf, 0xc2, 0xb7, 0xa5, 0xbc, 0xf8, 0x63, 0x3c, 0x3e,
  0xc3, 0x47, 0xdd, 0x3e, 0x24, 0xa3, 0xf3, 0xbc, 0x29, 0x15, 0xb6, 0x3d,
  0x30, 0x10, 0xb8, 0x3e, 0x9e, 0x06, 0xa8, 0xbc, 0xde, 0x35, 0x61, 0x3d,
  0x46, 0x02, 0x0a, 0xbe, 0xca, 0x99, 0x84, 0xbd, 0xdf, 0x84, 0x09, 0xbe,
  0x7d, 0x35, 0xf7, 0x3d, 0x78, 0x4f, 0xe4, 0x39, 0xaf, 0x21, 0x1d, 0x3d,
  0xef, 0xee, 0xfe, 0xbd, 0x40, 0xe3, 0x0e, 0xbe, 0x6e, 0x1f, 0xf3, 0x3d,
  0x18, 0xa2, 0x3c, 0xbe, 0xe2, 0xe0, 0xff, 0xff, 0x10, 0x00, 0x00, 0x00,
  0x07, 0x00, 0x00, 0x00, 0x1c, 0x00, 0x00, 0x00, 0x38, 0x00, 0x00, 0x00,
  0x04, 0x00, 0x00, 0x00, 0x08, 0x00, 0x00, 0x00, 0x04, 0x00, 0x00, 0x00,
  0x03, 0x00, 0x00, 0x00, 0x01, 0x00, 0x00, 0x00, 0x18, 0x00, 0x00, 0x00,
  0x73, 0x65, 0x71, 0x75, 0x65, 0x6e, 0x74, 0x69, 0x61, 0x6c, 0x2f, 0x63,
  0x6f, 0x6e, 0x76, 0x32, 0x64, 0x2f, 0x43, 0x6f, 0x6e, 0x76, 0x32, 0x44,
  0x00, 0x00, 0x00, 0x00, 0xdc, 0xe0, 0xff, 0xff, 0xd2, 0xe1, 0xff, 0xff,
  0x04, 0x00, 0x00, 0x00, 0xc0, 0x00, 0x00, 0x00, 0x61, 0x2b, 0x26, 0xbe,
  0x87, 0x5f, 0x15, 0xbd, 0xbb, 0xc2, 0xea, 0x3e, 0xec, 0xdf, 0x20, 0xbe,
  0x84, 0x03, 0xde, 0x3e, 0x3b, 0x70, 0xec, 0xbe, 0xc7, 0x21, 0x25, 0xbd,
  0xcc, 0xe3, 0x54, 0x3f, 0x75, 0x00, 0x33, 0xbe, 0x07, 0xfe, 0x81, 0x3c,
  0x05, 0xe7, 0xaa, 0xbe, 0xf5, 0x43, 0x60, 0x3e, 0x11, 0xeb, 0x37, 0xbe,
  0x22, 0x7b, 0x71, 0x3f, 0x5a, 0xc3, 0x53, 0x3e, 0x00, 0x2a, 0x9a, 0x3e,
  0x1f, 0x0d, 0x48, 0xbe, 0x5a, 0x7f, 0xd0, 0xbd, 0x55, 0xf5, 0xa7, 0xbf,
  0x98, 0xa4, 0xcc, 0x3e, 0x50, 0x57, 0x65, 0xbd, 0x94, 0x3f, 0x03, 0xbe,
  0xf1, 0x64, 0xbc, 0xbe, 0x29, 0x2c, 0x3f, 0xbf, 0x75, 0xd0, 0x82, 0xbe,
  0x48, 0x4e, 0xc3, 0x3c, 0xb4, 0xb4, 0x65, 0xbe, 0x87, 0x84, 0x2a, 0x3e,
  0x92, 0xc1, 0xcc, 0xbe, 0x4b, 0x00, 0x46, 0xbf, 0x62, 0x27, 0x59, 0x3d,
  0x96, 0xde, 0x5b, 0x3e, 0xa7, 0xe4, 0xf4, 0xbd, 0xb9, 0x43, 0x89, 0x3b,
  0x93, 0xd1, 0x2f, 0xbf, 0xbd, 0xc1, 0x13, 0xbd, 0x71, 0x21, 0xbd, 0xbc,
  0x9c, 0x85, 0x4d, 0x3e, 0x39, 0x15, 0x97, 0xbe, 0xfb, 0xf8, 0xd3, 0xbe,
  0xc3, 0x34, 0x79, 0xbe, 0xad, 0x1b, 0xd0, 0xbc, 0xfa, 0xb1, 0xad, 0xbe,
  0xc1, 0xf6, 0x2d, 0x3e, 0xad, 0xd9, 0xb2, 0x3d, 0xac, 0x97, 0x00, 0xbf,
  0x0b, 0x9c, 0x4d, 0x3e, 0xf8, 0xa0, 0xc0, 0x3e, 0xfa, 0xe1, 0xff, 0xff,
  0x10, 0x00, 0x00, 0x00, 0x06, 0x00, 0x00, 0x00, 0x14, 0x00, 0x00, 0x00,
  0x30, 0x00, 0x00, 0x00, 0x02, 0x00, 0x00, 0x00, 0x03, 0x00, 0x00, 0x00,
  0x10, 0x00, 0x00, 0x00, 0x19, 0x00, 0x00, 0x00, 0x73, 0x65, 0x71, 0x75,
  0x65, 0x6e, 0x74, 0x69, 0x61, 0x6c, 0x2f, 0x64, 0x65, 0x6e, 0x73, 0x65,
  0x5f, 0x31, 0x2f, 0x4d, 0x61, 0x74, 0x4d, 0x75, 0x6c, 0x00, 0x00, 0x00,
  0xec, 0xe1, 0xff, 0xff, 0xe2, 0xe2, 0xff, 0xff, 0x04, 0x00, 0x00, 0x00,
  0x00, 0x1c, 0x00, 0x00, 0x8e, 0x7a, 0x60, 0x3e, 0x67, 0x19, 0x3a, 0xbf,
  0x08, 0x45, 0xf8, 0x3e, 0x18, 0xcd, 0x23, 0xbe, 0xf3, 0x50, 0x16, 0xbe,
  0x01, 0x66, 0x55, 0xbf, 0xee, 0xd1, 0xcd, 0xbe, 0x90, 0xd5, 0x42, 0x3e,
  0x7b, 0xe5, 0x48, 0xbc, 0xb6, 0x47, 0xb6, 0xbe, 0x3f, 0x09, 0x93, 0x3d,
  0x1c, 0xf5, 0x50, 0xbf, 0x26, 0xee, 0x0a, 0xbe, 0xf9, 0x8e, 0x36, 0x3e,
  0xed, 0x2f, 0xf7, 0xbe, 0xb0, 0x33, 0x8c, 0xbd, 0x0d, 0x28, 0xba, 0x3d,
  0x82, 0xed, 0x29, 0xbf, 0xf8, 0x7e, 0x0c, 0x3e, 0x33, 0xdd, 0x3d, 0x3d,
  0xe2, 0xa2, 0xb8, 0xbd, 0xbc, 0xf3, 0xad, 0x3e, 0xd6, 0xa6, 0x1e, 0x3e,
  0xc7, 0x4c, 0x4a, 0x3d, 0x79, 0x64, 0x15, 0x3d, 0xc3, 0x2e, 0xac, 0x3e,
  0x79, 0xb0, 0x9f, 0x3e, 0xda, 0xb2, 0x6a, 0xbf, 0xf4, 0xd7, 0xc8, 0x3d,
  0xb4, 0x8a, 0xaf, 0x3e, 0x53, 0x52, 0xb5, 0xbd, 0x03, 0x1d, 0x84, 0x3e,
  0x2a, 0x1f, 0x26, 0x3d, 0x9f, 0x0c, 0xa9, 0xbe, 0xfa, 0xae, 0x33, 0x3d,
  0x6e, 0xbe, 0x86, 0x3d, 0x9c, 0x7b, 0x2f, 0xbd, 0x67, 0xa7, 0xb0, 0x3e,
  0x7d, 0x4f, 0x07, 0x3e, 0xe8, 0xbb, 0x7d, 0xbc, 0x69, 0xfa, 0xa4, 0x3d,
  0xc0, 0x1a, 0x8b, 0x3e, 0x45, 0x68, 0xce, 0x3c, 0xd1, 0xf9, 0xde, 0xbe,
  0x50, 0x8d, 0x13, 0x3e, 0x31, 0xf3, 0xac, 0x3e, 0xdf, 0x2e, 0x2d, 0xbe,
  0x72, 0x26, 0x72, 0x3e, 0xc7, 0xf5, 0x23, 0x3e, 0x21, 0x89, 0x1b, 0xbe,
  0xa7, 0xa5, 0x65, 0x3e, 0x70, 0xac, 0x32, 0x3e, 0x43, 0x6a, 0x50, 0x3e,
  0x35, 0xa7, 0x58, 0x3d, 0x51, 0x92, 0x94, 0x3d, 0xa3, 0x3f, 0x6f, 0xbc,
  0x6e, 0x24, 0xc0, 0x3d, 0x31, 0xec, 0x55, 0x3e, 0x8b, 0x13, 0x00, 0xbe,
  0x69, 0x77, 0xdc, 0xbe, 0x6d, 0x01, 0x36, 0x3e, 0xba, 0x4d, 0xf2, 0x3e,
  0x09, 0xb1, 0x68, 0xbe, 0xa5, 0x2f, 0x91, 0x3e, 0xea, 0xd5, 0xb9, 0x3d,
  0xa7, 0x60, 0xad, 0xbe, 0x30, 0xf0, 0x08, 0x3d, 0xd5, 0x6a, 0x6a, 0x3e,
  0xaa, 0xbf, 0xaa, 0xbd, 0xee, 0xfd, 0xb8, 0x3d, 0x32, 0x45, 0x1c, 0x3e,
  0x5b, 0xe1, 0xe9, 0x3b, 0xce, 0x79, 0xa6, 0x3d, 0xe6, 0xba, 0x21, 0xbe,
  0xd7, 0x66, 0x47, 0xbe, 0x7d, 0x97, 0x06, 0xbf, 0x73, 0x4b, 0x09, 0x3e,
  0xde, 0xaa, 0xeb, 0x3e, 0x34, 0xf5, 0x50, 0xbe, 0x61, 0x73, 0x0b, 0x3e,
  0x43, 0xd8, 0x07, 0x3e, 0x26, 0xd3, 0x6c, 0xbe, 0x59, 0x4a, 0xfc, 0xbe,
  0x8f, 0x2c, 0x54, 0xbc, 0x3c, 0x7e, 0xa0, 0xbe, 0x24, 0xa1, 0x49, 0x3e,
  0x7a, 0x9f, 0xc0, 0xbd, 0xf6, 0x53, 0x64, 0xbd, 0x18, 0xcb, 0xc9, 0x3c,
  0x07, 0x10, 0x2f, 0xbe, 0x33, 0x72, 0xad, 0xbe, 0x1d, 0x02, 0xb4, 0xbe,
  0x88, 0x70, 0x36, 0x3d, 0xa0, 0x54, 0x05, 0x3f, 0xe0, 0xf9, 0xd4, 0xbe,
  0x08, 0x35, 0x90, 0x3d, 0xdb, 0xcf, 0xfc, 0x3d, 0x56, 0x95, 0xfa, 0xbd,
  0xc0, 0x92, 0xbd, 0xbe, 0xa4, 0x0d, 0x0f, 0x3e, 0xab, 0x3e, 0xf0, 0xbd,
  0x5c, 0xfa, 0xd7, 0x3c, 0x9a, 0x13, 0xaa, 0xbd, 0x73, 0xd4, 0xbb, 0x3e,
  0x04, 0x97, 0x92, 0xbd, 0x91, 0xfe, 0x89, 0x3d, 0x72, 0x7b, 0xcc, 0xbe,
  0x12, 0x78, 0x80, 0xbd, 0x13, 0x6e, 0xce, 0xbd, 0xce, 0x64, 0x82, 0x3e,
  0x0b, 0xf0, 0x7e, 0xbe, 0x8f, 0xc0, 0x50, 0x3d, 0x86, 0x09, 0x18, 0x3e,
  0x59, 0xfd, 0xd5, 0xbe, 0x15, 0x57, 0x50, 0x3e, 0xf2, 0x5f, 0x8f, 0xbd,
  0x73, 0x90, 0x01, 0xbe, 0x59, 0xb9, 0x44, 0xbf, 0xc0, 0xb4, 0x89, 0xbe,
  0x88, 0xc0, 0x09, 0x3e, 0xf8, 0xf0, 0xee, 0xbc, 0x7d, 0x2e, 0xae, 0xbe,
  0x3d, 0xbd, 0xcd, 0x3c, 0x4d, 0xff, 0x8d, 0xbe, 0xcd, 0xb8, 0xd6, 0xbd,
  0xe4, 0xd9, 0x2f, 0x3e, 0x38, 0xea, 0xa9, 0xbe, 0x4f, 0x48, 0x01, 0xbe,
  0xa1, 0x67, 0xdb, 0x3d, 0xc6, 0x3b, 0xe4, 0xbe, 0xef, 0x53, 0x23, 0x3e,
  0xbd, 0x6f, 0x79, 0xbc, 0xfb, 0x31, 0x2e, 0xbd, 0x07, 0xa9, 0x92, 0x3e,
  0x5d, 0xae, 0xef, 0x3c, 0xc6, 0x20, 0x6a, 0x3d, 0xc8, 0x56, 0x5a, 0x3d,
  0x4e, 0xec, 0x3f, 0x3e, 0xf4, 0x8a, 0x2e, 0x3e, 0xf3, 0x2e, 0x05, 0xbf,
  0x74, 0x7c, 0x4f, 0x3d, 0xdf, 0x37, 0xab, 0x3e, 0x20, 0xcd, 0x0a, 0xbe,
  0x3c, 0x6d, 0xcb, 0x3d, 0x05, 0xe5, 0xcb, 0x3d, 0xf3, 0x99, 0x53, 0xbe,
  0x08, 0x83, 0xa5, 0x3e, 0x9e, 0x5d, 0x2a, 0x3c, 0xea, 0x12, 0x96, 0x3d,
  0xbb, 0xf4, 0xe0, 0x3d, 0x75, 0xc3, 0x24, 0x3e, 0x03, 0x27, 0x44, 0x3c,
  0x34, 0x53, 0x9b, 0x3d, 0x04, 0x0f, 0x01, 0x3e, 0x44, 0x52, 0x7c, 0xbe,
  0x15, 0x27, 0x3c, 0xbd, 0x00, 0x90, 0xc9, 0x3d, 0x91, 0xfb, 0xee, 0x3e,
  0xab, 0x2b, 0x28, 0xbe, 0xa0, 0x96, 0x7b, 0x3e, 0x26, 0x04, 0xff, 0x3d,
  0x62, 0x4e, 0x06, 0x3d, 0x17, 0x02, 0x6b, 0x3e, 0x9a, 0xd7, 0xce, 0x3d,
  0x9d, 0xc0, 0xe4, 0x3d, 0xee, 0x93, 0xac, 0xbd, 0xab, 0x9a, 0xbe, 0x3c,
  0xaf, 0x95, 0xf6, 0xbc, 0xba, 0x49, 0x7d, 0x3d, 0x48, 0xfc, 0x41, 0x3e,
  0x4c, 0xbd, 0x23, 0x3a, 0x55, 0x0b, 0x8e, 0xbc, 0x40, 0x5b, 0xc6, 0x3d,
  0xc5, 0xfa, 0xa6, 0x3e, 0xd6, 0xd1, 0xfc, 0xbd, 0x3d, 0x1f, 0x5f, 0x3e,
  0x1a, 0xc0, 0x49, 0x3d, 0x69, 0x35, 0x6e, 0xbe, 0xcb, 0x38, 0x29, 0xbe,
  0x20, 0xc9, 0x7d, 0x3e, 0xf6, 0x4b, 0x53, 0xbd, 0x7e, 0x00, 0xa5, 0xbd,
  0x1d, 0x5c, 0x31, 0xbd, 0x61, 0x00, 0x65, 0xbc, 0x84, 0x63, 0x71, 0x3d,
  0x2f, 0xcf, 0x9a, 0xbe, 0x13, 0x61, 0x59, 0xbe, 0x60, 0x86, 0x9b, 0xbe,
  0xce, 0x71, 0xcc, 0x3d, 0x72, 0x3a, 0xe5, 0x3d, 0x97, 0xe7, 0x45, 0xbe,
  0xdc, 0x20, 0x39, 0x3e, 0x0e, 0x13, 0x9d, 0x3d, 0x03, 0x08, 0x4f, 0xbe,
  0xd4, 0x44, 0xd2, 0xbe, 0x5b, 0x57, 0x1c, 0xbc, 0x28, 0xa3, 0x3d, 0xbe,
  0x3a, 0x86, 0x8f, 0x3d, 0x14, 0xd8, 0x15, 0xbe, 0xb6, 0x7c, 0x2c, 0xbb,
  0x00, 0x8a, 0x3b, 0x3d, 0xe9, 0xdf, 0x59, 0xbd, 0x2c, 0x7a, 0x6e, 0xbe,
  0xb6, 0xa0, 0x07, 0xbe, 0x2e, 0x96, 0xed, 0x3c, 0x40, 0x71, 0x1d, 0x3f,
  0xd9, 0xc1, 0xa6, 0xbe, 0x82, 0xb4, 0xa1, 0x3d, 0xe1, 0x67, 0x6a, 0x3d,
  0x1a, 0x0c, 0x8b, 0xbd, 0xfe, 0x93, 0xc2, 0xbe, 0xbe, 0xbc, 0x17, 0x3e,
  0x9b, 0xaa, 0x0e, 0xbe, 0x1a, 0xcc, 0x63, 0x3d, 0x4b, 0x09, 0x02, 0xbe,
  0x0c, 0xfa, 0x81, 0x3e, 0xdc, 0xec, 0xe6, 0xbc, 0x00, 0x0c, 0x7d, 0x3d,
  0x88, 0xe2, 0x9f, 0xbe, 0x09, 0xb5, 0x23, 0xbd, 0xd5, 0xff, 0x86, 0xbd,
  0xd4, 0xd6, 0x38, 0x3e, 0xa1, 0xb6, 0x14, 0xbe, 0x8d, 0xd6, 0x3a, 0x3c,
  0xda, 0x3e, 0x40, 0xbe, 0x9d, 0xb9, 0x14, 0xbe, 0x24, 0x4b, 0x8e, 0x3f,
  0x8d, 0x6a, 0xa0, 0xbd, 0xe2, 0x82, 0xa7, 0xbd, 0xca, 0x27, 0xb6, 0xbc,
  0x59, 0xec, 0x3e, 0xbe, 0x39, 0x30, 0x0c, 0xbd, 0x56, 0x87, 0x73, 0xbe,
  0x8e, 0x5a, 0x12, 0xbe, 0x9b, 0xd8, 0x25, 0xbe, 0x2a, 0x95, 0x0d, 0xbe,
  0xff, 0xed, 0x1c, 0xbe, 0x50, 0xf6, 0x10, 0x3e, 0x61, 0x91, 0x8d, 0xbe,
  0x23, 0xa1, 0x25, 0x3e, 0x42, 0x5b, 0x98, 0x3d, 0xfc, 0x87, 0x4b, 0xbe,
  0x8e, 0x48, 0x96, 0x3f, 0x29, 0xb5, 0x4a, 0xbe, 0x9c, 0x28, 0x13, 0xbe,
  0xb2, 0x1e, 0xae, 0x3b, 0x2b, 0xed, 0x11, 0xbd, 0x25, 0xd1, 0x2f, 0x3e,
  0x83, 0x11, 0x91, 0xbe, 0x98, 0xab, 0x13, 0x3e, 0x3a, 0xee, 0x13, 0x3e,
  0x53, 0x0d, 0x45, 0xbe, 0x5e, 0x0a, 0x62, 0xbe, 0xe8, 0xaa, 0x91, 0x3e,
  0x94, 0xb9, 0x75, 0xbe, 0xcc, 0xd3, 0x95, 0x3e, 0x2c, 0xec, 0xcc, 0xbb,
  0x6e, 0x3b, 0xd6, 0x3b, 0xd6, 0xfc, 0x98, 0x3f, 0x1d, 0x2d, 0xba, 0xbd,
  0xe9, 0xed, 0x44, 0xbd, 0xe1, 0x26, 0x1e, 0xbe, 0xbd, 0xab, 0x28, 0xbe,
  0xce, 0x7d, 0x1e, 0xbd, 0x18, 0x9d, 0xcb, 0xbe, 0xbf, 0x8f, 0x18, 0x3e,
  0xfe, 0x36, 0x0f, 0x3e, 0x52, 0xc3, 0x47, 0xbe, 0xc0, 0xf0, 0x02, 0xbe,
  0x97, 0xbb, 0xc8, 0x3e, 0x28, 0xcc, 0x75, 0xbb, 0x01, 0x7d, 0x7d, 0x3d,
  0x60, 0x1a, 0x4f, 0xbc, 0x16, 0xf2, 0x6a, 0xbe, 0x4e, 0xf0, 0x98, 0x3f,
  0x10, 0x79, 0x49, 0xbe, 0xe8, 0x64, 0x5e, 0xbe, 0xb9, 0x89, 0xac, 0x3d,
  0x60, 0xee, 0x63, 0xbe, 0x9f, 0x7c, 0xba, 0xbd, 0x7b, 0x2d, 0x21, 0xbe,
  0xc5, 0x50, 0x33, 0xbe, 0xd3, 0x5e, 0x45, 0xbd, 0x31, 0xac, 0x71, 0xbd,
  0x0e, 0xa1, 0x4f, 0xbe, 0x65, 0x83, 0xd7, 0x3e, 0x93, 0x38, 0xa2, 0x3d,
  0xb3, 0x05, 0x39, 0x3e, 0x22, 0xdf, 0x3a, 0x3c, 0xbd, 0x9f, 0x37, 0xbd,
  0x4d, 0xcd, 0x88, 0x3f, 0x2f, 0xdf, 0xc6, 0xbd, 0x05, 0xc4, 0x70, 0xbe,
  0x2a, 0x1f, 0xa9, 0xbd, 0x6e, 0x0e, 0x1b, 0xbd, 0x73, 0xdf, 0xa8, 0x3d,
  0x77, 0xba, 0x3b, 0xbd, 0xd6, 0xea, 0xf7, 0x3d, 0x52, 0x43, 0x5e, 0xbe,
  0xc7, 0x40, 0x10, 0xbe, 0x93, 0x67, 0xad, 0xbe, 0x89, 0x0f, 0x98, 0x3e,
  0xb9, 0x44, 0x66, 0xbe, 0x36, 0x11, 0xd0, 0x3d, 0x87, 0x12, 0xc3, 0x3e,
  0xe4, 0xa3, 0x49, 0xbe, 0xcb, 0x31, 0x08, 0x3f, 0xb6, 0x59, 0x3f, 0x3e,
  0xb6, 0x80, 0x5a, 0xbd, 0x23, 0xff, 0x0e, 0x3e, 0x3a, 0x54, 0xcc, 0xb8,
  0xcd, 0xd1, 0x68, 0x3d, 0x58, 0x2c, 0x36, 0xbe, 0xc0, 0xde, 0xbe, 0x3d,
  0x6f, 0xaa, 0xbe, 0xbc, 0xd1, 0xb1, 0x3d, 0x3c, 0xac, 0x7b, 0x89, 0xbe,
  0xdf, 0xbf, 0x42, 0x3e, 0xda, 0xfc, 0xb2, 0x3a, 0xc3, 0x26, 0x1f, 0xbe,
  0xb8, 0xf7, 0x28, 0xbe, 0x66, 0xb9, 0x76, 0xbd, 0x73, 0xc1, 0xd6, 0x3e,
  0x31, 0xcf, 0xbd, 0x3d, 0x46, 0x91, 0xa5, 0xbd, 0x9d, 0x35, 0x80, 0xbe,
  0x2d, 0xad, 0x0c, 0xbd, 0x54, 0x04, 0x88, 0x3e, 0x27, 0xa4, 0xbd, 0xbe,
  0x29, 0xf9, 0xb1, 0xbe, 0x9e, 0x78, 0x73, 0xbe, 0x6d, 0xe2, 0xcc, 0xbd,
  0x4f, 0x38, 0x3c, 0xbe, 0x8d, 0xc2, 0xe4, 0x3d, 0xc4, 0x0f, 0x43, 0xbe,
  0xed, 0x3e, 0x90, 0x3d, 0x37, 0x46, 0x5e, 0xbe, 0xaa, 0xaa, 0x2b, 0xbe,
  0xd2, 0x45, 0x5a, 0xbd, 0x34, 0xe6, 0x92, 0xbd, 0x82, 0x3a, 0xb4, 0xbe,
  0x9f, 0xec, 0x3c, 0xbe, 0x36, 0x00, 0xe0, 0xbd, 0x67, 0x7d, 0x98, 0xbd,
  0xd4, 0xf1, 0x73, 0xbe, 0x0e, 0x52, 0x3c, 0xbe, 0x4b, 0xf8, 0x89, 0x3c,
  0x1a, 0xda, 0xf2, 0xbd, 0x4d, 0x96, 0x8f, 0xbe, 0x58, 0x6d, 0xcf, 0x3d,
  0x9b, 0x65, 0x95, 0x3d, 0xf3, 0x32, 0x18, 0xbe, 0xae, 0xc8, 0xa3, 0xbe,
  0x13, 0x0b, 0x17, 0xbe, 0xc5, 0x82, 0xa5, 0x3d, 0x3e, 0x02, 0x16, 0x3e,
  0xc2, 0x7b, 0x09, 0xbe, 0x38, 0x70, 0x2c, 0xbe, 0xbe, 0x44, 0x6d, 0x3d,
  0xf8, 0xdf, 0xc1, 0x3b, 0xb6, 0xff, 0x5b, 0xbe, 0x04, 0x85, 0x2a, 0xbd,
  0xcc, 0x51, 0x6a, 0xbd, 0x03, 0xbd, 0xf0, 0x3c, 0xea, 0xe5, 0x34, 0xbe,
  0x77, 0xb0, 0xe1, 0x3c, 0xc7, 0x4b, 0x81, 0xbe, 0x40, 0xfd, 0x09, 0x3e,
  0x93, 0x85, 0x5e, 0xbb, 0xfb, 0x19, 0x14, 0x3e, 0x78, 0x0e, 0xf7, 0x3b,
  0x69, 0xcb, 0x5e, 0xbd, 0xa8, 0xbe, 0x20, 0xbe, 0xee, 0x18, 0x5f, 0x3d,
  0x44, 0x07, 0xf1, 0xbd, 0x4e, 0x0f, 0x20, 0xbe, 0x68, 0xc5, 0x66, 0xbe,
  0x3b, 0x9f, 0x2d, 0xbe, 0x66, 0x07, 0x27, 0xbe, 0x42, 0x3c, 0x0f, 0x3e,
  0xc0, 0xe4, 0x5c, 0xbe, 0x76, 0xc9, 0x1e, 0xbe, 0xf1, 0x25, 0x95, 0xbe,
  0x91, 0x99, 0x90, 0xbd, 0x76, 0x85, 0x9b, 0xbd, 0x8c, 0xfc, 0xe8, 0x3d,
  0xb8, 0x05, 0x06, 0x3e, 0xa2, 0xda, 0x43, 0x3e, 0x50, 0xc8, 0x74, 0xbe,
  0x2c, 0xbd, 0x37, 0x3e, 0x84, 0x9e, 0x76, 0xbd, 0x26, 0x65, 0xa5, 0x3d,
  0xa4, 0xd7, 0x13, 0x3d, 0xb3, 0xaf, 0x69, 0x3d, 0x90, 0x2f, 0x02, 0xbe,
  0x00, 0x08, 0xb0, 0xbd, 0x77, 0x40, 0x5c, 0xbe, 0xb4, 0x45, 0x24, 0x3b,
  0x27, 0x0d, 0x69, 0xbe, 0x89, 0x53, 0x3f, 0x3d, 0xef, 0xe4, 0xc7, 0x3d,
  0xfc, 0x73, 0xd3, 0x3d, 0x1c, 0x87, 0x93, 0xbc, 0x4a, 0x19, 0xd6, 0x3c,
  0xdf, 0x0a, 0x46, 0x3d, 0xc1, 0xd4, 0x6e, 0x3c, 0x56, 0xa3, 0x30, 0xbe,
  0x83, 0x04, 0xd4, 0x3c, 0xff, 0x57, 0xc0, 0xbc, 0x97, 0xa3, 0x04, 0xbe,
  0xe1, 0xb7, 0x3e, 0x3e, 0x69, 0x52, 0xc1, 0xbd, 0xf1, 0x59, 0xf3, 0xbd,
  0x04, 0x96, 0x1e, 0x3e, 0xa3, 0x65, 0x73, 0xbe, 0xd4, 0x9d, 0xbd, 0x3c,
  0x27, 0x1d, 0x4b, 0xbb, 0xef, 0xf1, 0x89, 0x3d, 0x19, 0x7b, 0xf0, 0x3d,
  0x26, 0x52, 0x91, 0x3d, 0xe0, 0xef, 0x0e, 0x3e, 0xaa, 0x37, 0x14, 0x3d,
  0x0c, 0x35, 0x4b, 0xbd, 0x84, 0xa7, 0x93, 0x3d, 0x58, 0xe8, 0x3f, 0xbe,
  0xca, 0x10, 0x3c, 0x3d, 0xf7, 0xd8, 0xdb, 0x3c, 0xf9, 0xcf, 0x2a, 0x3d,
  0xe2, 0x24, 0x25, 0xbe, 0x99, 0x66, 0xf5, 0x3d, 0xd2, 0x6d, 0x6d, 0xbe,
  0x63, 0xef, 0xc2, 0xbc, 0x09, 0xe9, 0x35, 0xbe, 0x80, 0xd2, 0xe6, 0x3c,
  0xc4, 0xc3, 0xea, 0x3d, 0xad, 0x11, 0xc9, 0x3c, 0x8b, 0x7c, 0x57, 0xbd,
  0x64, 0xee, 0x06, 0xbe, 0xfc, 0x58, 0x76, 0xbe, 0xa5, 0xfa, 0x5a, 0xbe,
  0x90, 0xf7, 0x44, 0xbe, 0x0e, 0x37, 0x79, 0x3d, 0x10, 0x2a, 0x4e, 0x3b,
  0xc0, 0x8d, 0x24, 0xbe, 0xc6, 0x85, 0x07, 0x3c, 0x12, 0x3a, 0x96, 0x3d,
  0xa0, 0xc0, 0x02, 0xbe, 0x9b, 0x0a, 0x06, 0x3e, 0x54, 0x99, 0x20, 0xbe,
  0xbb, 0xd3, 0x04, 0x3e, 0x8b, 0x4e, 0x60, 0xbe, 0x57, 0xea, 0xc5, 0x3d,
  0x2f, 0x6c, 0x73, 0xbd, 0x99, 0x16, 0xaf, 0xbd, 0x3b, 0x15, 0xa8, 0xbe,
  0x88, 0x26, 0x96, 0xbd, 0xf7, 0x2d, 0x97, 0x3c, 0xc9, 0xd2, 0xe7, 0x3d,
  0xb1, 0x9d, 0x07, 0x3e, 0x28, 0x19, 0x33, 0xbe, 0xa5, 0x47, 0x15, 0x3d,
  0x4a, 0x13, 0x0f, 0xbe, 0x99, 0xf3, 0x06, 0x3e, 0xb1, 0x73, 0xd2, 0xbd,
  0xc9, 0x7a, 0x82, 0x3d, 0x87, 0x6d, 0x2c, 0xbe, 0xb6, 0xec, 0xc6, 0x3d,
  0x72, 0xba, 0x1b, 0x3e, 0x38, 0x62, 0x2a, 0x3e, 0x2b, 0xf7, 0xd4, 0x3d,
  0x5e, 0x32, 0xf1, 0xbd, 0xf5, 0x54, 0xbb, 0xbd, 0x48, 0x5e, 0xc2, 0xbd,
  0xab, 0x07, 0x41, 0xbe, 0xa5, 0x9a, 0xb6, 0xbd, 0x84, 0xfd, 0xeb, 0xbd,
  0xa7, 0xf4, 0xef, 0xbd, 0xed, 0xf2, 0x50, 0xbe, 0xbe, 0x1e, 0x01, 0xbe,
  0xe8, 0x13, 0x7d, 0xbe, 0xb6, 0x47, 0xb9, 0xbd, 0xd3, 0x37, 0xb1, 0xbd,
  0xaf, 0x8f, 0xf0, 0xbc, 0xea, 0x21, 0x1e, 0xbe, 0x99, 0xe0, 0xcb, 0xbd,
  0x5b, 0x6f, 0x10, 0x3e, 0x47, 0xdf, 0x14, 0x3d, 0xab, 0x2a, 0x05, 0xbe,
  0x87, 0xd8, 0xa3, 0xbe, 0x6f, 0x55, 0x40, 0xbe, 0x38, 0xad, 0x3e, 0xbe,
  0xc5, 0x17, 0x0b, 0xbd, 0x01, 0x2d, 0x70, 0xbc, 0xd0, 0x1c, 0x77, 0xbe,
  0xed, 0xaa, 0x9e, 0xbd, 0xf4, 0x24, 0xa9, 0xbd, 0x80, 0x2f, 0x85, 0x3d,
  0x41, 0xdc, 0x24, 0xbe, 0xbd, 0x0f, 0xf6, 0xbd, 0xa9, 0xbd, 0x6d, 0x3c,
  0x08, 0xb1, 0x23, 0xbb, 0x82, 0xa7, 0x98, 0x3d, 0x61, 0x57, 0x27, 0xbe,
  0xc9, 0xbb, 0x65, 0x3d, 0x09, 0x57, 0x0c, 0x3d, 0xa5, 0xc5, 0x4a, 0xbe,
  0xef, 0x1f, 0x3f, 0x3e, 0x33, 0x3f, 0xf0, 0x3b, 0xd1, 0x56, 0x44, 0xbe,
  0x57, 0xe0, 0x17, 0xbd, 0xa5, 0xf8, 0x3d, 0xbd, 0x5f, 0x98, 0x7b, 0xbd,
  0xbb, 0x9e, 0x13, 0xbe, 0xc2, 0x41, 0x6d, 0xbe, 0x2c, 0xb0, 0x1d, 0xbe,
  0x25, 0x33, 0x15, 0x3e, 0x2e, 0x70, 0x14, 0x3e, 0xda, 0xb7, 0x5d, 0xbe,
  0xb3, 0x60, 0x29, 0x3e, 0x3f, 0xaf, 0x88, 0xbe, 0xa9, 0xdc, 0x45, 0xbe,
  0xa3, 0x86, 0x23, 0xbe, 0xf8, 0x58, 0x06, 0x3d, 0x34, 0xbe, 0x2a, 0xbd,
  0x5f, 0x37, 0x9b, 0xbc, 0x1b, 0xd8, 0x96, 0x3d, 0xf5, 0xc9, 0x6c, 0xbd,
  0xe0, 0x25, 0x03, 0xbe, 0x43, 0x99, 0x83, 0x3d, 0x64, 0x28, 0x45, 0xbe,
  0xe8, 0xe7, 0x50, 0xbe, 0x62, 0xee, 0xcf, 0xbd, 0x1f, 0xae, 0x37, 0x3d,
  0x44, 0x09, 0x1c, 0x3b, 0x53, 0xa2, 0xe2, 0x3d, 0x1f, 0x67, 0xe1, 0xbd,
  0xcf, 0xd1, 0xc0, 0x3c, 0xaf, 0x65, 0x28, 0x3d, 0x63, 0xc0, 0xff, 0x3d,
  0xe8, 0x92, 0x3e, 0x3e, 0xe9, 0x23, 0x51, 0xbe, 0x5e, 0x8c, 0x9f, 0x3d,
  0xe0, 0xdc, 0xab, 0x3d, 0x0b, 0x13, 0x48, 0xbe, 0xf1, 0x39, 0x9c, 0xbe,
  0x92, 0xfe, 0x0f, 0xbe, 0x8f, 0x22, 0xd9, 0x3d, 0x34, 0x15, 0x4c, 0xbe,
  0x9a, 0x4f, 0xe9, 0x3c, 0x12, 0x85, 0xac, 0xbe, 0x23, 0x43, 0x67, 0xbe,
  0x52, 0xe8, 0x42, 0xbe, 0xe8, 0xcd, 0x52, 0xbe, 0x69, 0xe9, 0x97, 0xbe,
  0xb8, 0xf0, 0x3a, 0xbe, 0xc7, 0x89, 0x80, 0xbe, 0xf0, 0x7c, 0x5e, 0xbe,
  0x79, 0xb4, 0x6b, 0xbe, 0xb3, 0xc4, 0x87, 0x3c, 0x12, 0x0a, 0x30, 0xbd,
  0xf5, 0xc4, 0x1c, 0xbd, 0xa7, 0x6d, 0xb8, 0xbd, 0xcb, 0x61, 0x25, 0xbc,
  0x8a, 0xbb, 0x5b, 0xbe, 0x4e, 0xf3, 0x2a, 0xbe, 0x0c, 0xb0, 0xb9, 0x3d,
  0xa2, 0xbf, 0x30, 0xbe, 0x17, 0x18, 0xde, 0xbd, 0xba, 0x4b, 0x5f, 0xbd,
  0x7d, 0x27, 0xa5, 0x3d, 0xd7, 0x94, 0x38, 0xbe, 0x3d, 0x37, 0x62, 0x3d,
  0x94, 0x7d, 0x45, 0xbe, 0x4c, 0x78, 0x40, 0xbe, 0x21, 0x94, 0x9c, 0xbe,
  0xeb, 0xbc, 0xa7, 0x3c, 0xd1, 0xa9, 0x2a, 0xbe, 0xd1, 0xa1, 0xb8, 0xbb,
  0xa9, 0x22, 0x2d, 0xbe, 0x9e, 0x12, 0xa3, 0x3c, 0xe4, 0xb2, 0x42, 0xbe,
  0x16, 0x8a, 0x48, 0xbe, 0xf9, 0x43, 0x86, 0xbd, 0x19, 0x66, 0x32, 0x3d,
  0xf3, 0x79, 0xa5, 0xbe, 0xfb, 0x09, 0x13, 0x3d, 0xe3, 0x7d, 0xd5, 0x3d,
  0x34, 0x88, 0x3c, 0xbe, 0x99, 0x83, 0x3c, 0xbe, 0x53, 0xfe, 0x07, 0x3e,
  0xdb, 0x0f, 0x05, 0xbe, 0xfc, 0x0b, 0x1b, 0xbc, 0xc7, 0x61, 0xe0, 0xbd,
  0x3d, 0x1a, 0x91, 0x3d, 0x23, 0xf4, 0x87, 0x3d, 0xcd, 0x9a, 0x82, 0x3c,
  0x2c, 0xd9, 0x3d, 0x3d, 0xa1, 0x81, 0x38, 0xbc, 0xca, 0xc2, 0x40, 0xbe,
  0xfb, 0x4a, 0x1b, 0xbe, 0x7d, 0xc4, 0x02, 0x3d, 0x23, 0x34, 0x0d, 0x3e,
  0xb1, 0xe2, 0x31, 0xbe, 0x64, 0x3d, 0xfb, 0xbd, 0xd7, 0xa4, 0x9d, 0xbc,
  0xbd, 0x8f, 0x4a, 0xbe, 0x38, 0x5b, 0xf0, 0x3c, 0x39, 0xf8, 0xd8, 0xbc,
  0xa1, 0xe1, 0x57, 0xbe, 0xf0, 0xaf, 0x60, 0xbe, 0x65, 0x0d, 0x1b, 0xbe,
  0xc0, 0x38, 0xa3, 0xbd, 0x4c, 0x69, 0x47, 0xbe, 0x27, 0x65, 0x0e, 0xbe,
  0xcd, 0xea, 0xa3, 0x3c, 0x04, 0x1c, 0xe6, 0x3c, 0x6c, 0xf0, 0x88, 0xbe,
  0x36, 0x48, 0x2a, 0x3e, 0x4f, 0xf5, 0xbf, 0x3d, 0x5b, 0x24, 0xcf, 0x3d,
  0x21, 0x96, 0x9c, 0xbe, 0xa3, 0x93, 0x07, 0xbe, 0x9b, 0xdf, 0x22, 0xbb,
  0x27, 0xb8, 0x01, 0x3e, 0x67, 0x2a, 0x1c, 0xbe, 0x19, 0xb1, 0x69, 0xbe,
  0x93, 0xd2, 0x24, 0xbd, 0x39, 0x0c, 0x8d, 0x3b, 0x78, 0x1e, 0x9a, 0xbc,
  0x4a, 0x87, 0x69, 0xbe, 0xbd, 0xaa, 0xa3, 0x3d, 0x88, 0xdc, 0x83, 0xbd,
  0x70, 0xbf, 0x22, 0xbe, 0x32, 0xbc, 0x19, 0x3e, 0xd1, 0x50, 0x53, 0xbe,
  0x96, 0x98, 0x82, 0x3d, 0x5f, 0x57, 0xa7, 0xbe, 0xf7, 0xe9, 0x40, 0xbe,
  0x08, 0x98, 0x05, 0x3c, 0x0e, 0x7f, 0xc1, 0x3d, 0xf8, 0xbb, 0xb8, 0xbd,
  0x6a, 0xb2, 0x5b, 0x3d, 0x08, 0xff, 0xfd, 0xbd, 0x2b, 0xe3, 0x09, 0x3e,
  0x66, 0xbe, 0x90, 0xbc, 0x6f, 0x2a, 0x3a, 0x3e, 0x37, 0x96, 0x11, 0xbe,
  0xbb, 0x9f, 0xd8, 0x3d, 0xf5, 0x41, 0xa9, 0xbd, 0x26, 0x68, 0xcb, 0xba,
  0x33, 0x83, 0x91, 0x3d, 0x4d, 0x23, 0x4f, 0xbd, 0xd3, 0x91, 0x92, 0xbe,
  0x71, 0x51, 0x23, 0xbe, 0xed, 0x32, 0x78, 0xbd, 0x8f, 0x2f, 0x05, 0xbe,
  0x6d, 0xc6, 0xc1, 0xbd, 0x8e, 0xf1, 0xcb, 0x3c, 0x77, 0xaa, 0x39, 0xbe,
  0x4a, 0x86, 0x67, 0xbd, 0x2c, 0xc7, 0xb3, 0xbd, 0x18, 0x08, 0xad, 0xbc,
  0x46, 0x65, 0xa2, 0xbd, 0x9d, 0x0c, 0xca, 0x3d, 0xc1, 0xc6, 0x63, 0xbe,
  0x92, 0xa3, 0x83, 0xbe, 0xc2, 0xef, 0x0c, 0xbb, 0x57, 0x5c, 0x8e, 0x3c,
  0x50, 0x32, 0x0c, 0xbe, 0xbd, 0xa8, 0x41, 0x3e, 0xbf, 0xc4, 0xd1, 0xbd,
  0x73, 0xc2, 0x1e, 0xbe, 0xf6, 0x7b, 0x09, 0x3e, 0x42, 0xc2, 0xbe, 0x3d,
  0x42, 0x1f, 0x5f, 0xbe, 0x56, 0xfa, 0xb0, 0x3d, 0x3e, 0x27, 0x0b, 0xbe,
  0x82, 0x7f, 0x0b, 0x3e, 0xf6, 0xe5, 0xb9, 0x3d, 0x0f, 0x83, 0x6e, 0xbe,
  0x6b, 0x37, 0x70, 0xbe, 0x30, 0xb5, 0x32, 0xbe, 0x56, 0x9f, 0xdb, 0xbd,
  0xe1, 0xf0, 0x82, 0xbe, 0xc4, 0x1e, 0x16, 0xbe, 0xcd, 0xca, 0x27, 0xbe,
  0x74, 0xeb, 0x4a, 0x3d, 0x32, 0x52, 0x5f, 0xbe, 0x2e, 0xa4, 0xee, 0x3c,
  0x02, 0x77, 0x46, 0xbe, 0xfc, 0xda, 0x23, 0x3d, 0xd3, 0x82, 0x2f, 0xbd,
  0x64, 0x62, 0xc8, 0x3d, 0x34, 0xf0, 0x05, 0xbe, 0xf4, 0x0d, 0x58, 0xbe,
  0x03, 0x00, 0xf4, 0xbd, 0xbc, 0x28, 0x5d, 0xbd, 0x61, 0x34, 0x20, 0xbe,
  0xb4, 0x60, 0x31, 0x3e, 0x5c, 0x04, 0x03, 0xbe, 0xc9, 0xe8, 0x19, 0xbe,
  0xec, 0x4b, 0x09, 0x3d, 0xaa, 0x0d, 0x13, 0xbd, 0xc0, 0x4d, 0x7f, 0xbd,
  0xc8, 0xb5, 0x5e, 0x3d, 0x46, 0xff, 0x82, 0xbe, 0x05, 0x78, 0x0f, 0x3e,
  0x01, 0x4b, 0xa9, 0xbd, 0x46, 0x9b, 0x86, 0xbe, 0xb1, 0xbd, 0x75, 0x3b,
  0x3d, 0x1e, 0x08, 0xbe, 0xb4, 0xcc, 0x8b, 0xbe, 0xff, 0xf3, 0x8f, 0xbe,
  0xba, 0xa9, 0x16, 0x3e, 0xef, 0xee, 0x49, 0xbe, 0xcc, 0x3d, 0xab, 0xbc,
  0x42, 0x1a, 0x97, 0xbe, 0xcb, 0x41, 0xde, 0xbd, 0x9c, 0xb2, 0x0f, 0xbe,
  0xeb, 0x30, 0x52, 0xbe, 0xdc, 0x46, 0xc6, 0xbd, 0xb1, 0x92, 0xb8, 0x3c,
  0x9d, 0xcf, 0xc5, 0x3c, 0x49, 0x0d, 0x0f, 0xbe, 0xa0, 0x71, 0x52, 0xbd,
  0x4d, 0x84, 0xb7, 0xbd, 0x02, 0x18, 0x52, 0xbe, 0x66, 0x56, 0x37, 0xbe,
  0x16, 0x0d, 0x02, 0xbe, 0x4b, 0x4f, 0xc6, 0xbd, 0x9e, 0x56, 0xe3, 0x3d,
  0x80, 0x96, 0x3d, 0xbd, 0xbd, 0x11, 0x89, 0xbe, 0xc6, 0x26, 0x8a, 0xbd,
  0xcf, 0xf8, 0xc9, 0xbd, 0xe9, 0x73, 0xa3, 0x3d, 0xdf, 0xb3, 0x7b, 0xbe,
  0x1d, 0x9d, 0x19, 0xbe, 0x64, 0x5f, 0x9e, 0x3d, 0x27, 0x08, 0x93, 0x3d,
  0xf6, 0x2f, 0xc5, 0x3c, 0x5d, 0xff, 0x2e, 0x3d, 0x4d, 0x21, 0x37, 0x3c,
  0x31, 0x8b, 0x85, 0xbe, 0x22, 0xa7, 0xfa, 0xbd, 0x31, 0x44, 0x5e, 0xbe,
  0x84, 0xa0, 0xfe, 0x3d, 0xa7, 0x5f, 0xd5, 0x3d, 0xb1, 0x18, 0x3f, 0xbd,
  0x8c, 0x75, 0x8d, 0xbd, 0xd1, 0x70, 0x38, 0xbe, 0x82, 0x40, 0x1a, 0xbe,
  0x98, 0x63, 0x8b, 0x3d, 0xd3, 0xf4, 0x07, 0xbe, 0x9b, 0x12, 0x2d, 0x3e,
  0xcb, 0x6a, 0xbe, 0xbd, 0x2c, 0x9f, 0x18, 0xbe, 0x96, 0x68, 0x21, 0xbe,
  0x8e, 0xae, 0xb4, 0x3c, 0xa7, 0xf0, 0xd4, 0xbd, 0x20, 0x6d, 0x2a, 0xbe,
  0xb3, 0xee, 0xa8, 0x3c, 0x63, 0x86, 0x12, 0x3d, 0x35, 0x90, 0x28, 0xbd,
  0xa5, 0xdd, 0x15, 0xbe, 0x25, 0xe6, 0xaf, 0xbd, 0xa5, 0x81, 0x9c, 0xbe,
  0x0a, 0xc7, 0x8e, 0x3d, 0x9d, 0xa1, 0xba, 0x3b, 0x3b, 0x39, 0x4e, 0x3d,
  0x1e, 0xd9, 0x51, 0x3d, 0xdc, 0x3a, 0xae, 0x3d, 0xb6, 0x5b, 0xc2, 0xbd,
  0xcf, 0x4a, 0x16, 0xbe, 0x8a, 0xc0, 0x28, 0x3c, 0xd3, 0x23, 0x17, 0x3e,
  0x2a, 0xcd, 0x45, 0xbe, 0xdd, 0x41, 0x09, 0xbc, 0x48, 0x2f, 0x36, 0xbe,
  0x07, 0x08, 0x44, 0xbe, 0x3e, 0xf1, 0xf2, 0xbd, 0x14, 0x63, 0x60, 0x3d,
  0xbb, 0xe3, 0x7a, 0xbe, 0xed, 0xa7, 0xab, 0xbd, 0x9c, 0x05, 0x37, 0xbd,
  0x4e, 0x79, 0x98, 0x3d, 0x7c, 0xde, 0x51, 0x3f, 0xa8, 0xdb, 0xeb, 0xbc,
  0x74, 0xaf, 0x5a, 0xbe, 0xf2, 0xf5, 0x5a, 0xbe, 0x2e, 0xf7, 0xa1, 0x3d,
  0x8e, 0x43, 0x34, 0x3e, 0x7e, 0x7e, 0x89, 0xbe, 0x12, 0xda, 0xfb, 0x3b,
  0x33, 0x97, 0xbd, 0x3d, 0x46, 0x54, 0x1e, 0xbd, 0x0f, 0x9e, 0xc0, 0xbe,
  0x06, 0x81, 0x36, 0x3e, 0x5f, 0x07, 0xa0, 0xbd, 0xed, 0xe1, 0xaf, 0x3d,
  0xf9, 0x48, 0x84, 0x3d, 0xc6, 0x9c, 0xcb, 0x3c, 0x87, 0xbe, 0x76, 0x3f,
  0x48, 0xda, 0x30, 0xbe, 0x2d, 0xee, 0x53, 0xbd, 0x96, 0x7a, 0x6e, 0xbe,
  0xe0, 0x90, 0x86, 0x3d, 0xc7, 0x82, 0xed, 0x3d, 0x7f, 0x4e, 0xa5, 0xbe,
  0xdb, 0x69, 0xad, 0xbd, 0x04, 0xf5, 0x54, 0xbe, 0x69, 0x5e, 0xa3, 0xbd,
  0x28, 0xf7, 0xe9, 0xbe, 0x50, 0xd6, 0x02, 0x3f, 0xac, 0x2f, 0x74, 0xbe,
  0x9d, 0x81, 0x37, 0x3e, 0xb8, 0x20, 0xf8, 0xbd, 0xc1, 0xab, 0x18, 0xbe,
  0x6e, 0x20, 0x74, 0x3f, 0xd2, 0x27, 0x33, 0xbd, 0xc9, 0x17, 0x8f, 0xbe,
  0x5d, 0xb9, 0x1b, 0x3e, 0x86, 0x55, 0xea, 0xbd, 0x60, 0x47, 0x8b, 0xbd,
  0x5c, 0x6d, 0x8d, 0xbe, 0x8e, 0x7e, 0xb8, 0x3d, 0x89, 0x9c, 0x8d, 0x3d,
  0xc9, 0xa5, 0x4e, 0xbe, 0x48, 0x20, 0xac, 0xbe, 0x7a, 0x6e, 0x8f, 0x3e,
  0x05, 0x90, 0x69, 0xbd, 0x72, 0x71, 0x8a, 0xbd, 0x3a, 0x46, 0xa8, 0x3d,
  0x85, 0x24, 0x81, 0xbe, 0x6b, 0xda, 0x7e, 0x3f, 0x18, 0x5e, 0x1e, 0xbe,
  0x6a, 0x8a, 0xec, 0x3d, 0x45, 0x43, 0x02, 0x3e, 0x45, 0xd0, 0x0b, 0x3e,
  0x1f, 0x26, 0x08, 0xbe, 0xc9, 0xee, 0x05, 0xbe, 0x92, 0x29, 0x2d, 0x3d,
  0x79, 0x87, 0x1c, 0xbe, 0x8d, 0x33, 0x44, 0xbe, 0x7a, 0x83, 0xc0, 0xbe,
  0xde, 0xe3, 0x23, 0x3e, 0x86, 0x74, 0xde, 0xbc, 0x68, 0x4d, 0x01, 0xbe,
  0x93, 0x7d, 0xbc, 0x3d, 0x89, 0xf9, 0x9d, 0xbc, 0xf6, 0x9b, 0x86, 0x3f,
  0x9b, 0xcb, 0xac, 0x3d, 0x9e, 0xc9, 0x62, 0xbe, 0xdb, 0x52, 0x86, 0x3d,
  0xed, 0x98, 0x8b, 0xbd, 0x82, 0x1d, 0x4a, 0x3c, 0x4c, 0x91, 0x83, 0xbe,
  0x01, 0x3d, 0xb7, 0xbc, 0x2e, 0xb9, 0x6f, 0xbe, 0x6a, 0x59, 0x90, 0x3d,
  0x17, 0xa5, 0x84, 0xbe, 0x82, 0x09, 0x01, 0x3f, 0x24, 0x48, 0xfd, 0xbd,
  0x55, 0x3f, 0x93, 0x39, 0x52, 0x87, 0x07, 0x3e, 0xe2, 0xf4, 0x8c, 0x3d,
  0x5a, 0x05, 0x2c, 0x3f, 0xca, 0xe5, 0x70, 0xbd, 0xd3, 0x78, 0x9a, 0xbe,
  0x6d, 0xa7, 0xb1, 0x3d, 0x06, 0x37, 0xc3, 0xbd, 0xed, 0x83, 0x92, 0x3d,
  0xe9, 0x52, 0xd5, 0xbe, 0xbd, 0xbc, 0x12, 0x3d, 0xbf, 0xef, 0x9c, 0x3c,
  0x78, 0x5b, 0x8a, 0x3c, 0xe5, 0x90, 0x85, 0xbe, 0x9e, 0x51, 0xd5, 0x3e,
  0x2e, 0xe3, 0x8a, 0xbc, 0xca, 0xf5, 0x31, 0x3d, 0xfd, 0x10, 0xc4, 0x3d,
  0xe0, 0xa1, 0x9a, 0xbe, 0x38, 0x7b, 0xbc, 0x3e, 0x11, 0x34, 0x1a, 0xbe,
  0x58, 0x03, 0x5f, 0xbe, 0x6e, 0x87, 0x3f, 0xbe, 0x38, 0x63, 0x77, 0xbe,
  0x09, 0x49, 0xad, 0x3d, 0xe2, 0xb1, 0xb0, 0xbe, 0xc1, 0x19, 0x89, 0xbe,
  0x1f, 0xed, 0xc3, 0xbc, 0x4f, 0x00, 0xbb, 0xbc, 0x89, 0x78, 0x23, 0xbe,
  0x27, 0xb7, 0x53, 0x3e, 0xbd, 0x08, 0x83, 0x3b, 0x8b, 0x0d, 0x88, 0x3b,
  0x6b, 0x6b, 0xf0, 0xbd, 0xac, 0xc1, 0x1f, 0xbf, 0xbd, 0x7b, 0xfb, 0x3c,
  0x28, 0x8c, 0x6c, 0xbd, 0x1d, 0x5d, 0x60, 0xbd, 0x1d, 0xd7, 0xc2, 0xbe,
  0xe0, 0xe7, 0x7e, 0xbe, 0x6a, 0xd8, 0x11, 0x3e, 0x4b, 0xa1, 0xdd, 0xbd,
  0xf7, 0xc9, 0x95, 0xbe, 0xf8, 0x29, 0x0d, 0x3d, 0xf3, 0xbc, 0xa1, 0xbe,
  0xab, 0x38, 0x23, 0xbe, 0xa8, 0x26, 0xcd, 0xbe, 0xb1, 0x57, 0xea, 0xbe,
  0x1b, 0x4d, 0x38, 0xbf, 0x4c, 0x15, 0x00, 0xbd, 0x3f, 0x84, 0x06, 0xbf,
  0x88, 0x8a, 0x0e, 0x3d, 0x88, 0x6d, 0xe1, 0xbd, 0x34, 0x9f, 0x98, 0x3c,
  0xf0, 0x52, 0x97, 0xbe, 0x54, 0xd7, 0x7f, 0xbe, 0x89, 0x32, 0x12, 0x3e,
  0x57, 0xf8, 0x5d, 0xbb, 0xfe, 0x6d, 0x55, 0xbe, 0xe1, 0x35, 0x9d, 0x3e,
  0x9f, 0x01, 0x8f, 0xbe, 0x21, 0xf1, 0xc1, 0xbd, 0x4b, 0xf5, 0xf8, 0xbd,
  0x2f, 0xc3, 0x3a, 0x3d, 0x26, 0x18, 0xb6, 0xbe, 0x30, 0xc3, 0x42, 0x3d,
  0x92, 0x00, 0x0e, 0x3e, 0xa2, 0x60, 0x78, 0xbb, 0x2f, 0x12, 0x92, 0xbc,
  0x9d, 0x6d, 0xf3, 0xbd, 0x9c, 0x83, 0x84, 0xbe, 0xd4, 0x5a, 0x11, 0xbe,
  0x88, 0x92, 0x45, 0x3e, 0xe1, 0x0c, 0x44, 0x3d, 0x1c, 0xdf, 0x46, 0xbe,
  0x48, 0x4f, 0xb5, 0x3e, 0x4b, 0x43, 0x69, 0xbc, 0xe0, 0x5c, 0xcf, 0x3b,
  0x7d, 0x2d, 0x5c, 0xbd, 0xf5, 0x09, 0x88, 0xbc, 0x43, 0x41, 0x89, 0xbe,
  0x23, 0x8c, 0x9a, 0xbd, 0x31, 0x15, 0xad, 0x3e, 0xc2, 0x98, 0xcc, 0xbd,
  0x8c, 0x4a, 0x0e, 0x3e, 0x8f, 0xe3, 0x34, 0xbd, 0xdd, 0xa9, 0x94, 0x3d,
  0xd4, 0xc5, 0x1b, 0x3e, 0x2d, 0x83, 0x4c, 0x3d, 0xc4, 0x7b, 0x33, 0x3d,
  0x78, 0xbc, 0xed, 0xbe, 0x1d, 0x88, 0x84, 0x3d, 0xc6, 0xbe, 0x0e, 0x3f,
  0xe1, 0xca, 0x76, 0x3d, 0xf2, 0x0c, 0x08, 0xbe, 0x98, 0x4b, 0x51, 0x3e,
  0xf4, 0x68, 0x64, 0xbe, 0xa8, 0x7e, 0xd1, 0xba, 0xb3, 0x81, 0xcd, 0x3e,
  0xc0, 0x35, 0x2b, 0xbf, 0xef, 0xbe, 0x5e, 0xbd, 0x4b, 0x53, 0xf6, 0xbd,
  0x99, 0xcb, 0x45, 0xbe, 0x2c, 0x89, 0x8f, 0xbd, 0x29, 0xf1, 0xc3, 0xbd,
  0x1e, 0x42, 0xfe, 0x3c, 0xb6, 0x40, 0xa1, 0xbe, 0x61, 0x99, 0xe1, 0xbe,
  0x52, 0x82, 0xed, 0x3e, 0x63, 0xd4, 0xfc, 0x3a, 0x3e, 0xfb, 0x81, 0xbe,
  0x73, 0x38, 0xf1, 0x3d, 0xbc, 0xb5, 0x6a, 0xbe, 0x27, 0xf5, 0x02, 0xbf,
  0xa1, 0x5c, 0xbc, 0x3e, 0xfb, 0x20, 0xb3, 0xbe, 0x4c, 0x41, 0x9a, 0xbd,
  0xb0, 0xbb, 0x53, 0xbe, 0xab, 0x76, 0xe5, 0x3d, 0xc5, 0x7c, 0x4f, 0xbe,
  0x3d, 0xd5, 0x8e, 0xbe, 0x18, 0xfb, 0xda, 0xbc, 0x43, 0x9e, 0x94, 0xbe,
  0x34, 0xe3, 0x61, 0xbd, 0x76, 0xea, 0x08, 0x3f, 0xa7, 0x07, 0x7d, 0xbd,
  0xea, 0x0a, 0x92, 0xbe, 0x99, 0x1e, 0x29, 0x3e, 0x34, 0x7a, 0x1c, 0xbe,
  0x36, 0x41, 0xdf, 0xbe, 0x73, 0xa9, 0x22, 0x3d, 0x5b, 0xd0, 0x0f, 0xbe,
  0xb2, 0x5d, 0x1b, 0xbe, 0xb8, 0x3d, 0x48, 0xbd, 0xfb, 0xed, 0x1d, 0xbe,
  0xe0, 0x36, 0x4a, 0xbe, 0xbe, 0xb1, 0x50, 0xbf, 0xc5, 0x9a, 0x14, 0x3d,
  0x53, 0xa1, 0xd2, 0xbe, 0xbd, 0xd9, 0x5a, 0x3e, 0xba, 0x88, 0x2c, 0x3d,
  0xc8, 0xdc, 0xf9, 0x3d, 0x61, 0xfa, 0x13, 0xbf, 0xc7, 0x81, 0xfa, 0x3d,
  0x30, 0x17, 0x0a, 0xbe, 0xc2, 0x62, 0xd2, 0xbd, 0x65, 0xf0, 0xd0, 0xbe,
  0xb1, 0x68, 0x7b, 0x3d, 0x9f, 0x20, 0x6c, 0x3d, 0x14, 0x68, 0x7d, 0xbe,
  0xdf, 0x10, 0xf3, 0xbd, 0x53, 0x5b, 0x18, 0xbe, 0x94, 0xb9, 0x11, 0xbf,
  0x1d, 0x89, 0x69, 0xbe, 0x58, 0x33, 0x0e, 0xbf, 0x77, 0xc7, 0x1e, 0xbd,
  0x7b, 0x65, 0x3b, 0xbe, 0xa7, 0xb5, 0xf8, 0xbd, 0x42, 0x21, 0x80, 0xbd,
  0x9e, 0xa7, 0x2a, 0xbf, 0xf0, 0x30, 0x17, 0xbe, 0x8e, 0xc5, 0x03, 0xbd,
  0xc9, 0x19, 0x76, 0x3d, 0x44, 0x6a, 0x05, 0xbe, 0x3a, 0x5a, 0x0e, 0x3d,
  0x34, 0x96, 0x20, 0xbe, 0xe6, 0x49, 0x4d, 0xbd, 0xeb, 0x98, 0x58, 0xbd,
  0xaf, 0xc2, 0x0d, 0xbf, 0x66, 0xa1, 0x5e, 0xbe, 0x1e, 0x07, 0x9f, 0xbe,
  0x32, 0xe2, 0x90, 0xbd, 0x33, 0x65, 0x69, 0x3d, 0x42, 0x89, 0xd7, 0x3c,
  0x1e, 0xf5, 0xe4, 0xbc, 0xb4, 0x88, 0xb4, 0xbe, 0x34, 0xe4, 0x0b, 0x3b,
  0xd0, 0xcc, 0xdd, 0xbe, 0xc1, 0x92, 0x06, 0xbe, 0x00, 0x75, 0x83, 0xbe,
  0xbf, 0xc6, 0x88, 0x3c, 0x1e, 0x71, 0x28, 0xba, 0x44, 0x1f, 0x87, 0x3d,
  0xbb, 0x4d, 0x35, 0xbe, 0x03, 0x89, 0xc0, 0xbe, 0xd0, 0x4e, 0xfd, 0xbd,
  0xff, 0x2a, 0xd1, 0xbe, 0x32, 0x50, 0x76, 0xbd, 0xd7, 0x17, 0x8d, 0x3d,
  0x9e, 0x17, 0xdf, 0xbb, 0x8f, 0x9d, 0x9f, 0x3c, 0x3a, 0x0e, 0x82, 0xbe,
  0x98, 0x4b, 0x00, 0xbe, 0xb7, 0x2e, 0x9c, 0xbe, 0x01, 0xaf, 0x63, 0xbe,
  0xed, 0xf1, 0x2c, 0xbd, 0xce, 0x8f, 0xb4, 0xbd, 0x85, 0x51, 0xba, 0xbe,
  0xff, 0xca, 0x15, 0xbe, 0x95, 0x42, 0xe3, 0xbd, 0x44, 0x0f, 0xa2, 0xbe,
  0x43, 0xf3, 0x2b, 0xbe, 0x99, 0x78, 0x0f, 0xbc, 0x34, 0xa4, 0x88, 0x3d,
  0x4b, 0xc9, 0x0d, 0xbc, 0x97, 0xa0, 0xe3, 0x3d, 0xe7, 0x6c, 0xeb, 0xbd,
  0x95, 0xed, 0x4b, 0xbe, 0x39, 0x33, 0xb6, 0xbd, 0x9c, 0x27, 0x94, 0xbe,
  0xbf, 0xc0, 0xcd, 0xbd, 0x6b, 0x7f, 0xbb, 0x3e, 0x1d, 0x9f, 0xec, 0x3d,
  0x81, 0xeb, 0xad, 0x3e, 0x53, 0x15, 0xd3, 0x3d, 0xdc, 0x94, 0x47, 0xbc,
  0x8e, 0xde, 0xde, 0xbe, 0x6f, 0x10, 0x03, 0xbe, 0x29, 0x9e, 0xc0, 0x3e,
  0x62, 0x1a, 0x91, 0x3e, 0xbb, 0x60, 0x84, 0x3d, 0x57, 0x30, 0x5c, 0xbc,
  0xed, 0xdc, 0xff, 0xbb, 0x34, 0x5a, 0x18, 0xbe, 0x0e, 0xc8, 0xd3, 0xbb,
  0x0d, 0xdf, 0x8f, 0xbe, 0xf9, 0xeb, 0xae, 0x3c, 0xb9, 0x63, 0xb8, 0x3e,
  0x90, 0xa3, 0x6d, 0x3d, 0x2e, 0x44, 0x0c, 0x3d, 0xd1, 0x15, 0xa2, 0xbd,
  0x19, 0x0e, 0xc9, 0x3d, 0x34, 0xc0, 0xed, 0xbd, 0x2c, 0xfa, 0xdc, 0xbd,
  0x0a, 0x67, 0x83, 0x3e, 0x64, 0x0c, 0x59, 0x3d, 0xea, 0x94, 0x10, 0xbd,
  0xfe, 0x8a, 0x07, 0xbd, 0x06, 0xc3, 0xaf, 0x3d, 0xb2, 0xc0, 0x3d, 0x3e,
  0x29, 0xa8, 0xdd, 0xbd, 0xb1, 0xfb, 0xec, 0x3d, 0x5a, 0xd0, 0x7c, 0xbd,
  0x44, 0x5a, 0x86, 0x3e, 0x1e, 0x7b, 0xcf, 0x3c, 0xc7, 0xb3, 0x4a, 0x3e,
  0x27, 0xae, 0x7c, 0x3d, 0x50, 0x1d, 0x9f, 0x3d, 0xa0, 0x8a, 0x0c, 0xbf,
  0x35, 0x7c, 0xb7, 0x3d, 0x2e, 0x1f, 0xdc, 0x3e, 0x7b, 0x6f, 0xc5, 0x3e,
  0x35, 0x6c, 0x56, 0xbe, 0xd3, 0xd0, 0x1f, 0x3d, 0xae, 0xb5, 0xdb, 0xbc,
  0x0a, 0x88, 0xa0, 0x3d, 0xf6, 0x6c, 0xde, 0x3d, 0x3e, 0xee, 0x1d, 0xbe,
  0xd7, 0x7e, 0x4f, 0xbd, 0x16, 0xd8, 0xc0, 0x3d, 0xcc, 0x3d, 0x2a, 0xbe,
  0x13, 0xa8, 0x87, 0xbd, 0x1e, 0x6d, 0x69, 0x3e, 0x61, 0x47, 0x5a, 0x3c,
  0x7e, 0x0f, 0xef, 0xbe, 0xd9, 0xea, 0x9c, 0xbe, 0x75, 0xa9, 0x09, 0x3e,
  0x02, 0x8a, 0x1b, 0x3e, 0x60, 0x87, 0x14, 0x3e, 0x01, 0x29, 0x85, 0xbe,
  0x81, 0x2b, 0xf2, 0xbc, 0xa6, 0x4c, 0xf4, 0xbe, 0x86, 0x7b, 0x09, 0x3e,
  0xaf, 0x00, 0x82, 0xbb, 0xfc, 0xbe, 0x90, 0xbb, 0x6b, 0xcd, 0x26, 0x3e,
  0xf6, 0xf8, 0x8f, 0xbd, 0xfb, 0xdf, 0x36, 0xbd, 0x6e, 0xb4, 0x1a, 0xbd,
  0xc4, 0x95, 0x42, 0x3d, 0x89, 0x2e, 0xe0, 0xbe, 0x70, 0x56, 0x43, 0xbe,
  0x35, 0x1b, 0xd2, 0xbd, 0x69, 0xfa, 0x9b, 0x3d, 0x49, 0x09, 0x21, 0x3d,
  0xdb, 0xd5, 0xf9, 0x3c, 0x44, 0x6f, 0x28, 0x3e, 0x3e, 0x99, 0x85, 0xbe,
  0xbf, 0x92, 0x12, 0x3e, 0x6a, 0x38, 0xf7, 0xbe, 0x48, 0x62, 0xc3, 0xbd,
  0x98, 0xac, 0x33, 0xbe, 0x71, 0x56, 0x50, 0xbd, 0xbb, 0x58, 0x6f, 0x3d,
  0x2a, 0xf3, 0x5a, 0xbe, 0x6c, 0x07, 0x2a, 0x3e, 0x6e, 0x4a, 0x0a, 0xbf,
  0x4b, 0xe2, 0x4a, 0xbe, 0x32, 0x2f, 0x41, 0xbe, 0x9f, 0x4f, 0x82, 0x3d,
  0xa0, 0x5c, 0x49, 0x3d, 0x21, 0xb8, 0x73, 0xbc, 0x80, 0x28, 0x88, 0x3e,
  0x86, 0xab, 0xdf, 0xbe, 0xf8, 0xfe, 0x7f, 0x3d, 0x1a, 0xc3, 0xff, 0xbd,
  0x04, 0xa8, 0x84, 0xbe, 0xdd, 0x23, 0x39, 0x3e, 0xa5, 0xd9, 0x99, 0x3d,
  0xc5, 0x5a, 0x86, 0xbe, 0xb9, 0x50, 0x6b, 0x3d, 0xef, 0xfe, 0x6c, 0xbd,
  0xef, 0xfc, 0x36, 0xbe, 0x24, 0xc9, 0x48, 0xbe, 0x0d, 0x22, 0x80, 0xbe,
  0x2f, 0x9d, 0x5a, 0xb9, 0x59, 0x35, 0xf3, 0xbd, 0x3f, 0xd3, 0xae, 0xbd,
  0xda, 0x0a, 0x92, 0x3d, 0xef, 0x9d, 0x82, 0xbe, 0xbe, 0xaa, 0xd6, 0xbc,
  0x65, 0xc8, 0x91, 0x3d, 0xd4, 0x9b, 0xc3, 0xbd, 0x85, 0x9a, 0x09, 0x3f,
  0x4e, 0x3d, 0xc0, 0x3b, 0xc3, 0x2e, 0x1b, 0x3e, 0x76, 0xbb, 0x50, 0x3e,
  0xba, 0xdb, 0x3d, 0x3d, 0xfd, 0x78, 0xd2, 0xbe, 0xd1, 0xc1, 0x2b, 0xbe,
  0x3b, 0x00, 0xdc, 0x3e, 0x6b, 0xdd, 0x60, 0x3e, 0x25, 0x21, 0xd3, 0x3c,
  0x72, 0x8f, 0x97, 0x3c, 0x90, 0xb8, 0xe2, 0x3d, 0xf8, 0x54, 0x71, 0x3d,
  0x42, 0x49, 0x7f, 0x3d, 0x53, 0x35, 0xd4, 0xbd, 0xac, 0x0a, 0x4a, 0x3d,
  0x51, 0xf9, 0x2d, 0x3e, 0xa1, 0xdf, 0x1a, 0x3e, 0x5a, 0x9f, 0x58, 0x3e,
  0x09, 0x6b, 0x96, 0xbd, 0xb8, 0xef, 0x99, 0x3e, 0x9c, 0x3e, 0x53, 0xbd,
  0x87, 0x1e, 0x51, 0xbe, 0xfa, 0x31, 0x97, 0x3e, 0x1e, 0x84, 0x1c, 0x3e,
  0xb6, 0x48, 0x5e, 0xbe, 0xa8, 0x55, 0x54, 0xbc, 0x50, 0xa7, 0x21, 0xbe,
  0x22, 0x61, 0x60, 0x3c, 0x75, 0x9c, 0x35, 0x3d, 0x03, 0xe2, 0x90, 0x3e,
  0x9a, 0xb4, 0x51, 0x3c, 0x5f, 0xa6, 0x67, 0x3d, 0x52, 0x51, 0xa4, 0xbd,
  0xba, 0xdb, 0x27, 0x3e, 0x00, 0xd8, 0x35, 0x3e, 0xee, 0x8a, 0xe1, 0x3d,
  0xd9, 0xea, 0x8e, 0xbd, 0xe0, 0x00, 0x26, 0xbd, 0x7d, 0xed, 0x45, 0x3e,
  0x6d, 0x2c, 0x03, 0x3f, 0xf7, 0xbd, 0x25, 0x3d, 0x9f, 0x49, 0xad, 0xbd,
  0xcb, 0xe0, 0x94, 0x3e, 0x61, 0x0c, 0x15, 0x3e, 0x63, 0x29, 0x43, 0x3d,
  0x63, 0xd4, 0x8d, 0xbe, 0xb5, 0xe5, 0x86, 0x3e, 0x8b, 0x78, 0x1d, 0xbe,
  0x2c, 0x40, 0x58, 0xbe, 0xc0, 0xba, 0x20, 0xbe, 0x15, 0x03, 0x98, 0x3e,
  0xd8, 0x89, 0xa0, 0xbe, 0xd1, 0xce, 0x0d, 0xbe, 0x10, 0xe9, 0x00, 0x3e,
  0xd8, 0x14, 0x7e, 0xbe, 0xa2, 0x50, 0x42, 0xbc, 0xbd, 0x2f, 0x1b, 0x3f,
  0x4d, 0xbe, 0x83, 0xbd, 0x62, 0x01, 0xcd, 0xbc, 0x18, 0xe8, 0x88, 0x3d,
  0x32, 0xe8, 0xa8, 0xbe, 0x16, 0xa3, 0xbe, 0xbc, 0x66, 0xc6, 0x04, 0x3e,
  0x7e, 0x56, 0xdb, 0xbd, 0xa5, 0x56, 0x27, 0x3d, 0x09, 0x25, 0xd8, 0x3e,
  0x41, 0xe6, 0x82, 0x3e, 0x78, 0xd4, 0x0d, 0xbe, 0xd2, 0x8c, 0x03, 0xbe,
  0x34, 0x90, 0x25, 0xbc, 0xa7, 0x49, 0xc2, 0x3d, 0x95, 0xae, 0xda, 0x3d,
  0xc5, 0xa9, 0x82, 0x3e, 0x5c, 0xa3, 0xba, 0xbd, 0x82, 0xfd, 0x17, 0xbe,
  0x9c, 0xaf, 0x3b, 0xbc, 0x39, 0xa4, 0xc4, 0xbe, 0x67, 0x00, 0xb3, 0xbd,
  0x4a, 0x9c, 0x5b, 0x3e, 0x38, 0x82, 0x89, 0x3d, 0xe4, 0x18, 0x22, 0xbd,
  0x8f, 0x87, 0x1e, 0x3f, 0xa3, 0xf3, 0x70, 0xbd, 0xad, 0x89, 0xc6, 0x3d,
  0x9b, 0xb3, 0x38, 0xbe, 0x64, 0x46, 0xae, 0xbd, 0x36, 0x22, 0x48, 0x3d,
  0x35, 0x9c, 0xc8, 0x3d, 0x8d, 0x4c, 0xda, 0x3e, 0x52, 0x52, 0x8a, 0x3b,
  0x50, 0x02, 0x5b, 0xbe, 0xe1, 0x07, 0xcd, 0x3e, 0x51, 0xfb, 0x02, 0xbe,
  0x6c, 0xaa, 0x95, 0xbd, 0x83, 0xc6, 0x88, 0x3e, 0xfd, 0xcf, 0xc2, 0xbe,
  0xdd, 0xd7, 0xe6, 0xbd, 0x71, 0x2b, 0x06, 0x3f, 0x8e, 0x66, 0x40, 0x3c,
  0xcd, 0xb9, 0x36, 0x3d, 0xf4, 0x61, 0x9a, 0xbd, 0xf3, 0x23, 0x14, 0xbd,
  0x60, 0xef, 0xcb, 0xbd, 0xc9, 0x2d, 0x5e, 0x3d, 0x9a, 0x2b, 0xbb, 0x3d,
  0xbc, 0x9c, 0x30, 0x3e, 0x06, 0x13, 0x14, 0xbe, 0x99, 0x0f, 0xe7, 0x3e,
  0x2c, 0xe8, 0xaa, 0xbe, 0x7f, 0x90, 0x91, 0x3d, 0xb2, 0x21, 0xa2, 0x3e,
  0x2b, 0x22, 0x19, 0xbf, 0xb2, 0x79, 0x31, 0x3e, 0x77, 0x48, 0x5f, 0x3b,
  0x17, 0x2c, 0x04, 0xbe, 0x1a, 0x79, 0x5b, 0xbe, 0x44, 0x70, 0xd5, 0x3d,
  0x4d, 0xbb, 0x84, 0xbc, 0xf2, 0x1b, 0xf6, 0xbe, 0x2e, 0x40, 0xa2, 0xbe,
  0xca, 0xa4, 0x13, 0x3f, 0xe1, 0x29, 0x71, 0x3d, 0xa6, 0x1f, 0xae, 0xbb,
  0x26, 0xa9, 0x7a, 0x3e, 0x3c, 0x9b, 0xd8, 0xbe, 0x3b, 0x99, 0x8b, 0x3d,
  0x3e, 0x0f, 0xab, 0x3e, 0x85, 0x18, 0x1d, 0xbe, 0x69, 0xff, 0xe9, 0xbd,
  0x3d, 0x5e, 0xeb, 0xbd, 0xf7, 0x56, 0x43, 0x3e, 0xb5, 0xf7, 0x99, 0xbe,
  0x06, 0x00, 0x92, 0x3d, 0xf2, 0xba, 0x4d, 0xbb, 0x01, 0xd3, 0x20, 0xbe,
  0x34, 0x68, 0xa8, 0x3d, 0x37, 0xb6, 0xd6, 0x3e, 0x83, 0x21, 0xad, 0x3c,
  0x30, 0xad, 0x02, 0xbe, 0x72, 0x87, 0x49, 0x3e, 0x63, 0x0d, 0xa4, 0xbe,
  0x26, 0x20, 0x7f, 0x3c, 0x58, 0xab, 0x2a, 0x3e, 0x44, 0x48, 0x35, 0xbe,
  0xe8, 0x72, 0x28, 0xbd, 0x45, 0x93, 0xd0, 0xbd, 0xb6, 0xd4, 0x44, 0xbc,
  0x5c, 0x41, 0xa6, 0xbe, 0xdc, 0x34, 0xe5, 0x3b, 0x08, 0x36, 0xd1, 0xbb,
  0x1b, 0x70, 0x2e, 0xbd, 0x9f, 0x96, 0x9b, 0xbd, 0x97, 0xdf, 0xd7, 0x3d,
  0xf9, 0xf7, 0x2e, 0x3d, 0x66, 0xc0, 0x84, 0xbc, 0x01, 0xe6, 0xc0, 0xbc,
  0x4f, 0x3a, 0x85, 0xbd, 0x95, 0x85, 0x30, 0xbd, 0x56, 0xa8, 0xdc, 0x3c,
  0x6c, 0x6e, 0xb3, 0xbd, 0xec, 0x23, 0x39, 0x3e, 0xff, 0xc0, 0x25, 0xbd,
  0xc7, 0xbd, 0x29, 0xbd, 0x13, 0xaa, 0x3d, 0xbd, 0xb9, 0x9a, 0xbe, 0x3d,
  0xa7, 0x9c, 0x0e, 0x3c, 0x05, 0x0a, 0xcd, 0xbd, 0x42, 0x44, 0x2c, 0x3e,
  0x57, 0xdf, 0x7f, 0xbc, 0x35, 0x25, 0x80, 0xbd, 0x3c, 0xae, 0xcc, 0x3d,
  0xfc, 0x5e, 0x40, 0xbe, 0xa8, 0xeb, 0x8e, 0x3d, 0xda, 0xea, 0xc5, 0xbd,
  0x99, 0xb7, 0x78, 0xbe, 0x84, 0xee, 0xe6, 0x3d, 0x2a, 0x50, 0xf6, 0xbd,
  0x8d, 0x71, 0x26, 0xbe, 0xcc, 0xf3, 0x3a, 0x3d, 0xb2, 0x24, 0x11, 0x3e,
  0x93, 0x34, 0x00, 0x3d, 0x58, 0x53, 0xe5, 0xbd, 0x9d, 0xa6, 0x96, 0x3d,
  0x09, 0xb3, 0xf0, 0x3d, 0xcc, 0x2b, 0x1c, 0xbd, 0xbb, 0x87, 0xf9, 0xbb,
  0xf3, 0xb9, 0x78, 0x3d, 0xe5, 0xc3, 0x39, 0xbd, 0x66, 0x1f, 0x20, 0xbe,
  0xb1, 0xdd, 0xcd, 0xbb, 0xb6, 0x02, 0x06, 0xbd, 0xdf, 0xfa, 0xb2, 0xbc,
  0x9c, 0x59, 0x66, 0x3d, 0x2b, 0x7d, 0x3f, 0x3d, 0x1e, 0xb1, 0xe1, 0x3d,
  0x7f, 0xf9, 0x0a, 0x3d, 0x91, 0xd2, 0x47, 0x3c, 0x95, 0x1b, 0xeb, 0xba,
  0xee, 0x44, 0xe2, 0x3d, 0x85, 0xef, 0xcd, 0x3d, 0x11, 0x5d, 0x5c, 0xbc,
  0x63, 0x69, 0x12, 0xbe, 0x0d, 0x5c, 0x27, 0xbe, 0x34, 0xd9, 0xfe, 0xbd,
  0x44, 0x5f, 0x2a, 0xbe, 0xa0, 0xff, 0x25, 0x3d, 0x2e, 0xa9, 0x67, 0xbc,
  0x04, 0x33, 0x56, 0x3d, 0x50, 0x9d, 0xb3, 0x3d, 0xdb, 0xba, 0x3b, 0xbe,
  0xcd, 0x47, 0x56, 0xbe, 0xc5, 0xdb, 0x14, 0x3c, 0x6d, 0x9a, 0x4b, 0xbe,
  0x77, 0x92, 0x40, 0xbe, 0x22, 0x63, 0x24, 0x3e, 0x0b, 0x65, 0x15, 0xbe,
  0xc9, 0x2c, 0x25, 0x3e, 0x76, 0x79, 0x2c, 0xbe, 0xd3, 0x67, 0x02, 0x3d,
  0xb3, 0xf4, 0x80, 0xbe, 0x25, 0x2f, 0x7a, 0xbe, 0x27, 0x90, 0x18, 0xbe,
  0x9f, 0x38, 0x13, 0xbe, 0x3a, 0xa9, 0x16, 0x3e, 0xe8, 0xf5, 0x1c, 0xbd,
  0xcb, 0xd5, 0xd9, 0x3c, 0x6c, 0xfb, 0xee, 0xbd, 0x15, 0xdf, 0x0d, 0xbe,
  0xbe, 0x3e, 0x17, 0xbe, 0x06, 0x7e, 0x18, 0xbe, 0x75, 0x15, 0x7a, 0xbd,
  0x51, 0x37, 0x2c, 0xbe, 0xd6, 0xa1, 0xe3, 0xbd, 0x65, 0x58, 0x31, 0x3d,
  0xd5, 0x2d, 0x77, 0x3d, 0x8d, 0xa7, 0x7a, 0x3b, 0x53, 0x41, 0x1e, 0xbe,
  0x4a, 0x5a, 0x0f, 0x3b, 0x4c, 0x8c, 0xaf, 0xbd, 0x0f, 0xb0, 0x11, 0x3e,
  0x12, 0x48, 0xf4, 0x3d, 0x6d, 0xfb, 0x2f, 0xbc, 0xa1, 0x6e, 0x23, 0x3e,
  0x1b, 0xf8, 0x08, 0x3d, 0x4e, 0x3f, 0x84, 0xbd, 0xf5, 0xa4, 0x59, 0xbd,
  0xb6, 0x7c, 0xe8, 0xbd, 0xf1, 0x3e, 0xc3, 0x3c, 0xb4, 0x87, 0x5d, 0xbb,
  0x13, 0xe2, 0x34, 0xbe, 0xaf, 0x6b, 0xe4, 0xbc, 0x40, 0xf8, 0xb3, 0x3d,
  0xc5, 0x48, 0xd9, 0xbc, 0x19, 0x34, 0xa1, 0x3d, 0x39, 0x99, 0x8b, 0xbe,
  0xb0, 0xf7, 0xba, 0x3d, 0xe9, 0xe4, 0x3b, 0x3e, 0xb7, 0xd5, 0x5d, 0xbe,
  0x72, 0x8f, 0x49, 0xbd, 0x99, 0x5e, 0x26, 0xbe, 0x80, 0xf0, 0x03, 0x3e,
  0xa3, 0xb3, 0x2b, 0xbe, 0xc5, 0x6c, 0x90, 0x3c, 0x33, 0x8f, 0x14, 0x3c,
  0xf3, 0x0f, 0x24, 0xbd, 0xf5, 0x7c, 0xa0, 0xbe, 0xe9, 0xc9, 0xa4, 0xba,
  0xde, 0xe3, 0x19, 0xbe, 0x9a, 0x94, 0x9d, 0x3d, 0x0d, 0x16, 0x0d, 0xbe,
  0xf3, 0x19, 0xba, 0x3d, 0x5b, 0x53, 0x15, 0x3f, 0xdc, 0xef, 0x39, 0xbe,
  0x02, 0x4d, 0x71, 0xbb, 0x45, 0xe1, 0xca, 0xbd, 0x57, 0x5a, 0x27, 0xbe,
  0x8b, 0xf4, 0x86, 0xbc, 0x11, 0x21, 0xcb, 0xbe, 0x32, 0x63, 0x85, 0xbe,
  0x92, 0xf1, 0x76, 0x3d, 0x95, 0xc5, 0x3d, 0xbe, 0xbd, 0xef, 0xc8, 0xbe,
  0x11, 0xdb, 0x8c, 0xbd, 0xcf, 0xdd, 0xab, 0xbe, 0xbb, 0xc9, 0x1a, 0x3e,
  0x2c, 0xcf, 0x79, 0xbe, 0x37, 0x50, 0x1d, 0xbd, 0xd0, 0x46, 0x53, 0x3f,
  0x0b, 0x10, 0x88, 0x3d, 0x1b, 0x16, 0x64, 0x3d, 0x3e, 0xb3, 0xed, 0xbd,
  0x4f, 0x56, 0x09, 0x3d, 0x71, 0x0d, 0x1c, 0x3e, 0xa4, 0x4a, 0x35, 0xbe,
  0x91, 0x8a, 0x45, 0x3e, 0x48, 0x49, 0xbc, 0x3c, 0x3a, 0x43, 0x53, 0x3e,
  0x78, 0x27, 0xf0, 0xbe, 0xdd, 0xa9, 0xfd, 0x3e, 0x09, 0x01, 0x7d, 0xbe,
  0xf4, 0xa1, 0x5d, 0x3b, 0xbc, 0x01, 0x1b, 0xbe, 0xe5, 0x4d, 0x70, 0xbe,
  0xeb, 0x81, 0x5f, 0x3f, 0x7d, 0x28, 0x28, 0x3e, 0x02, 0x36, 0x1e, 0xbe,
  0x3f, 0xa6, 0xfb, 0xbb, 0xf9, 0xaa, 0x9c, 0xbd, 0x5e, 0xe7, 0x23, 0x3e,
  0xb1, 0x80, 0x85, 0xbe, 0xda, 0xf5, 0x34, 0xbe, 0xaa, 0x72, 0xba, 0xbd,
  0xc7, 0x0a, 0xe9, 0xbd, 0x35, 0x67, 0x67, 0xbe, 0xd8, 0x3e, 0x09, 0x3f,
  0x4c, 0xd1, 0x8d, 0x3d, 0x99, 0x17, 0x1c, 0xbe, 0xce, 0xed, 0x83, 0x3e,
  0xc7, 0xb0, 0x96, 0x3d, 0x37, 0x58, 0x49, 0x3f, 0x7e, 0x37, 0x2a, 0x3e,
  0xfd, 0x1d, 0xa0, 0x3d, 0x2e, 0x9d, 0x3c, 0xba, 0xf2, 0x42, 0xe5, 0x3d,
  0xc0, 0x50, 0xb9, 0x3b, 0x1c, 0xa3, 0x28, 0xbe, 0xac, 0xe0, 0x65, 0xbe,
  0x0d, 0x47, 0x5b, 0x3d, 0x78, 0xe7, 0xa8, 0xbc, 0x11, 0x7e, 0xb4, 0xbe,
  0xdf, 0xca, 0x80, 0x3e, 0x7c, 0x52, 0x12, 0x3c, 0x4b, 0x93, 0xce, 0x3b,
  0xd8, 0xf7, 0x1c, 0x3e, 0xba, 0x16, 0xf4, 0x3d, 0x3a, 0x5c, 0x5a, 0x3f,
  0xbc, 0x56, 0x2e, 0x3d, 0x21, 0x97, 0xc5, 0x3d, 0xbc, 0x9e, 0x42, 0x3d,
  0x60, 0x1d, 0xab, 0xbd, 0xd1, 0x46, 0x83, 0xbd, 0x6f, 0x75, 0xfd, 0xbe,
  0x1f, 0xb7, 0xfd, 0x3d, 0xd9, 0xbd, 0x72, 0xbd, 0x0a, 0xdc, 0x28, 0xbe,
  0x25, 0x0d, 0xdc, 0xbe, 0xef, 0x8d, 0x16, 0x3f, 0x9f, 0x49, 0x8d, 0xbe,
  0x36, 0xaf, 0xa7, 0xbd, 0xe6, 0x0e, 0x9c, 0x3e, 0x10, 0x0e, 0x66, 0xbe,
  0x20, 0x21, 0xe1, 0x3e, 0xf1, 0x85, 0xfc, 0x3d, 0x9c, 0xb9, 0x29, 0x3d,
  0x90, 0x26, 0x06, 0x3e, 0x77, 0x5d, 0x61, 0xbe, 0xe8, 0xfa, 0x16, 0x3e,
  0x10, 0xf6, 0x82, 0xbe, 0xed, 0x00, 0x49, 0x3d, 0xa7, 0xa4, 0x70, 0xbe,
  0x37, 0x19, 0xce, 0xbd, 0x3d, 0x60, 0x48, 0xbe, 0x62, 0x8f, 0xc0, 0x3d,
  0xf9, 0x12, 0xe8, 0xbd, 0x0f, 0xdd, 0x6f, 0x3c, 0xa5, 0x65, 0xbc, 0x3c,
  0x81, 0x2a, 0x34, 0xbe, 0x9c, 0x68, 0xed, 0x3e, 0x59, 0x36, 0xa6, 0x3d,
  0xf4, 0xed, 0xa1, 0xbe, 0xb3, 0xeb, 0x38, 0xbe, 0x42, 0x0f, 0xa8, 0xbd,
  0x71, 0x28, 0x67, 0x3b, 0x5e, 0x75, 0xe0, 0xbd, 0x2b, 0x8f, 0x00, 0xbe,
  0xf2, 0x44, 0x6a, 0xba, 0xd0, 0xaf, 0x93, 0xbe, 0xf9, 0x83, 0x6b, 0xbd,
  0x7e, 0x05, 0x93, 0x3e, 0x70, 0x9e, 0x6e, 0x3c, 0x3c, 0x2b, 0x44, 0x3c,
  0xa9, 0x27, 0x9f, 0x3d, 0x2f, 0xd4, 0xac, 0x3d, 0xf6, 0x4f, 0xd9, 0xbd,
  0xd2, 0xea, 0x9c, 0xbd, 0xd7, 0x6c, 0x3d, 0xbe, 0xae, 0x38, 0x81, 0xbe,
  0xd9, 0x6e, 0x9a, 0xbe, 0x8d, 0x62, 0x0f, 0x3e, 0x23, 0xbe, 0xb1, 0x3d,
  0xb2, 0x65, 0xbe, 0xbe, 0x7e, 0x10, 0x6f, 0xbd, 0x6c, 0xff, 0x14, 0x3f,
  0xf1, 0x00, 0xc9, 0xbd, 0xc1, 0xb4, 0x4e, 0x3d, 0x57, 0xa4, 0xc5, 0xbc,
  0xc8, 0x2c, 0x63, 0xbe, 0xb0, 0xc0, 0x11, 0xbd, 0x2d, 0xd1, 0x92, 0xbc,
  0x6c, 0x9f, 0xa6, 0x3e, 0xf9, 0xcf, 0x1f, 0x3e, 0x85, 0x06, 0x17, 0x3e,
  0x6e, 0x5e, 0x81, 0x3e, 0x4f, 0x77, 0x32, 0xbe, 0x62, 0x8b, 0xbe, 0x3c,
  0x8e, 0xf3, 0xfd, 0x3c, 0x30, 0xa6, 0x7f, 0xbd, 0xb1, 0x31, 0xb2, 0x3d,
  0xb2, 0x15, 0x77, 0x3e, 0xe5, 0xc0, 0x8b, 0x3c, 0x88, 0x57, 0x8d, 0x3e,
  0x9a, 0x86, 0x15, 0xbe, 0x7e, 0xd7, 0x96, 0x3d, 0x11, 0x3e, 0xb4, 0xbd,
  0x59, 0xa5, 0x5d, 0xbd, 0x38, 0x87, 0xf5, 0x3d, 0x3b, 0xb1, 0xfc, 0xbc,
  0xef, 0x23, 0x2a, 0x3f, 0x8a, 0x7e, 0x9c, 0x3c, 0xb8, 0x75, 0x8a, 0xbd,
  0x62, 0x35, 0x54, 0xbd, 0xff, 0x38, 0xb5, 0x3c, 0xd6, 0x39, 0xb0, 0xbe,
  0x17, 0xd5, 0x2a, 0x3d, 0x0a, 0x66, 0xd1, 0x3e, 0xea, 0xfc, 0x6d, 0x3d,
  0x2c, 0x75, 0xe0, 0xbc, 0x35, 0x05, 0xfd, 0x3e, 0x90, 0x45, 0x07, 0x3e,
  0x4c, 0x7a, 0x01, 0x3c, 0x83, 0x3d, 0xf6, 0x3e, 0xe0, 0x9e, 0x06, 0xbd,
  0x91, 0xbd, 0x9e, 0xbd, 0x50, 0x59, 0xc4, 0x3e, 0x68, 0x25, 0xf7, 0xbc,
  0x2e, 0xfc, 0x98, 0x3d, 0x32, 0x8b, 0x55, 0xbc, 0xea, 0x89, 0x01, 0x3d,
  0xbf, 0xd9, 0x4c, 0xbe, 0x01, 0x5f, 0x25, 0x3e, 0x8f, 0xd3, 0x25, 0x3e,
  0x4f, 0x82, 0xbd, 0x3d, 0x69, 0x00, 0x0a, 0x3d, 0x4c, 0x53, 0x0c, 0x3f,
  0xea, 0x01, 0xb0, 0x3d, 0x7d, 0x65, 0xf6, 0x3c, 0xd7, 0xf4, 0x86, 0x3e,
  0x00, 0x88, 0x8d, 0xbe, 0x85, 0x64, 0x1b, 0x3d, 0x7c, 0x4e, 0x1e, 0xbe,
  0x58, 0x96, 0x37, 0x3e, 0x86, 0x15, 0xa1, 0xbe, 0xc8, 0x79, 0x6e, 0x3c,
  0x8b, 0xa5, 0x37, 0x3d, 0x54, 0xe5, 0xa5, 0xbe, 0x2e, 0x60, 0xca, 0xbd,
  0x0f, 0x5e, 0xa9, 0x3e, 0xb0, 0xa8, 0x51, 0x3d, 0xc7, 0x62, 0x5b, 0x3e,
  0xc5, 0x79, 0x5b, 0x3e, 0x22, 0x0d, 0x8d, 0x3c, 0xc5, 0xd0, 0x9c, 0x3d,
  0x36, 0x09, 0x35, 0x3e, 0x1c, 0x9c, 0xb2, 0xbe, 0x98, 0x2f, 0x06, 0x3e,
  0x01, 0xc4, 0x0e, 0xbe, 0x4e, 0x9e, 0xb3, 0x3d, 0xe0, 0xec, 0x6b, 0xbe,
  0x51, 0x0d, 0x28, 0x3d, 0x8d, 0xd0, 0x10, 0x3d, 0x07, 0xba, 0x80, 0xbe,
  0xcd, 0x37, 0x31, 0xbe, 0x94, 0x3c, 0x82, 0x3e, 0xa6, 0xc5, 0x35, 0x3d,
  0x97, 0xa9, 0x87, 0x3c, 0x9e, 0x2d, 0x28, 0xbd, 0x50, 0xba, 0x7f, 0xbc,
  0xbe, 0x41, 0x46, 0x3c, 0x63, 0x0c, 0x18, 0xbc, 0xff, 0x13, 0x96, 0xbe,
  0x28, 0x2f, 0xf6, 0x3d, 0x6d, 0xd6, 0x39, 0xbe, 0xb2, 0x5a, 0x38, 0xbc,
  0xe2, 0x0f, 0x8f, 0xbd, 0x06, 0x7b, 0x8f, 0x3d, 0x30, 0x3b, 0x08, 0xbc,
  0xe8, 0x66, 0x19, 0xbd, 0x53, 0x5e, 0x0b, 0xbe, 0xc3, 0x6f, 0xbf, 0x3d,
  0xd5, 0x04, 0xfb, 0xbc, 0x1d, 0x06, 0x2a, 0x3d, 0x6a, 0x5c, 0x55, 0x3a,
  0x8c, 0xda, 0xe3, 0x3b, 0x40, 0x3d, 0x9c, 0x3e, 0xac, 0xfc, 0xb3, 0xbd,
  0x66, 0xd6, 0x7a, 0x3e, 0xfa, 0xbe, 0x2a, 0xbe, 0xc9, 0xd5, 0xba, 0xbd,
  0x3a, 0xb4, 0xf9, 0xbd, 0x22, 0x27, 0xed, 0xbd, 0x30, 0x6d, 0xf6, 0x3d,
  0xd1, 0x08, 0x98, 0xbd, 0xe8, 0x02, 0x00, 0x3e, 0x89, 0xf6, 0x76, 0x3d,
  0xc6, 0xc6, 0x56, 0xbd, 0x53, 0x09, 0x44, 0xbe, 0x83, 0xe1, 0x75, 0xbe,
  0x17, 0xd5, 0x3d, 0xbe, 0xd5, 0xbc, 0x51, 0xbe, 0x4b, 0xeb, 0x3d, 0x3e,
  0xb2, 0x1a, 0x31, 0xbe, 0xe9, 0x5d, 0x55, 0xbc, 0x0f, 0xf1, 0x0c, 0x3e,
  0xdf, 0x4d, 0xc4, 0xbd, 0x88, 0x7d, 0x18, 0x3e, 0xdf, 0x3c, 0xb2, 0x3d,
  0xfb, 0x97, 0x2e, 0xbe, 0x11, 0x80, 0x98, 0xbc, 0x07, 0x74, 0x15, 0x3e,
  0x41, 0x83, 0x8b, 0xbe, 0xe2, 0x07, 0xd5, 0xbd, 0x67, 0xda, 0x01, 0xbe,
  0x8e, 0xfc, 0x1b, 0xbe, 0xa4, 0x83, 0xd5, 0x3d, 0x85, 0x1a, 0x8c, 0xbd,
  0xc5, 0xc4, 0x7e, 0x3e, 0x35, 0x5d, 0xc4, 0x3d, 0xb6, 0xb8, 0x0b, 0x3e,
  0x6d, 0x2c, 0xfc, 0xbd, 0x55, 0xba, 0xe8, 0x3d, 0x93, 0x56, 0x86, 0x3e,
  0xfe, 0xab, 0x37, 0x3d, 0xd9, 0x20, 0xd3, 0x3b, 0x0c, 0xcf, 0x1a, 0x3d,
  0xc0, 0xca, 0xd2, 0x3d, 0x1b, 0xa0, 0x68, 0x3e, 0x7e, 0xf1, 0x0e, 0xbe,
  0x3b, 0xba, 0x27, 0xbd, 0xc1, 0x3a, 0xd9, 0x3d, 0xf6, 0x70, 0xa8, 0xbd,
  0xda, 0x90, 0xcb, 0xbd, 0xaa, 0xc1, 0x11, 0x3e, 0x38, 0xa8, 0x0c, 0xbd,
  0xc7, 0x81, 0x8e, 0x3d, 0xde, 0xba, 0x1d, 0xbd, 0x74, 0x72, 0x28, 0xbe,
  0xb5, 0xf5, 0xdb, 0x3d, 0xcf, 0x09, 0x1f, 0xbe, 0x0e, 0xc6, 0xb6, 0x3d,
  0xf1, 0x5a, 0x0c, 0xbe, 0x4c, 0xeb, 0xb8, 0xbd, 0x8f, 0x00, 0x27, 0xbc,
  0xaa, 0xdc, 0xc5, 0xbc, 0x59, 0x3e, 0xf8, 0x3d, 0x91, 0x49, 0x6e, 0xbe,
  0xda, 0xe8, 0x79, 0xbc, 0x88, 0x3c, 0xcd, 0xbd, 0x07, 0xd1, 0x42, 0x3e,
  0x30, 0xf5, 0x87, 0xbd, 0x76, 0x6b, 0x29, 0xbe, 0x7e, 0x28, 0xe5, 0xbc,
  0x4b, 0xeb, 0xd8, 0x3d, 0xc7, 0xbb, 0x59, 0x3e, 0xb7, 0x8c, 0x0f, 0xbc,
  0x67, 0xa3, 0x92, 0xbe, 0x5c, 0x96, 0xa3, 0xbd, 0xa5, 0x98, 0x1a, 0x3c,
  0x9e, 0x42, 0xca, 0xbd, 0x0e, 0x00, 0x9c, 0x3c, 0xf2, 0xb3, 0x75, 0xbd,
  0x59, 0x7a, 0xed, 0xbd, 0xff, 0x25, 0x41, 0xbc, 0x83, 0x91, 0xeb, 0xbd,
  0xfa, 0x06, 0xd3, 0x3d, 0xe4, 0x87, 0xa9, 0xbd, 0x65, 0x9b, 0x94, 0x3c,
  0x5a, 0x70, 0x90, 0x3d, 0xcb, 0x65, 0x6c, 0xbe, 0xc2, 0xfb, 0xcd, 0x3c,
  0x35, 0xbf, 0xd6, 0xbc, 0x92, 0x04, 0x70, 0xbe, 0x1e, 0x62, 0xef, 0xbd,
  0xe3, 0x63, 0x4c, 0x3e, 0xa6, 0xc6, 0xcd, 0xbd, 0xaa, 0xb3, 0x2f, 0x3e,
  0xc1, 0x77, 0x24, 0xbc, 0xb4, 0xc0, 0xcc, 0x3c, 0x4e, 0xee, 0x12, 0x3c,
  0xff, 0xc5, 0x46, 0xbe, 0x07, 0xac, 0xc2, 0x3d, 0xbf, 0xcd, 0x00, 0xbe,
  0x6f, 0x97, 0x44, 0x3e, 0xce, 0x98, 0x3f, 0x3e, 0x2d, 0x8b, 0x40, 0xbe,
  0x5b, 0x06, 0xea, 0xbd, 0x20, 0xce, 0x43, 0x3d, 0x05, 0x08, 0x4d, 0xbd,
  0x4c, 0xa1, 0xa2, 0xbd, 0xa3, 0xc5, 0x32, 0x3c, 0xa3, 0xf2, 0x98, 0xbe,
  0x8c, 0x77, 0xe4, 0x3d, 0x7a, 0x2a, 0xa8, 0x3c, 0x97, 0x52, 0xaf, 0xbd,
  0x63, 0x22, 0xd5, 0xbd, 0x40, 0xe1, 0x0d, 0x3d, 0x4a, 0xfe, 0xff, 0xff,
  0x10, 0x00, 0x00, 0x00, 0x05, 0x00, 0x00, 0x00, 0x14, 0x00, 0x00, 0x00,
  0x2c, 0x00, 0x00, 0x00, 0x02, 0x00, 0x00, 0x00, 0x10, 0x00, 0x00, 0x00,
  0x70, 0x00, 0x00, 0x00, 0x17, 0x00, 0x00, 0x00, 0x73, 0x65, 0x71, 0x75,
  0x65, 0x6e, 0x74, 0x69, 0x61, 0x6c, 0x2f, 0x64, 0x65, 0x6e, 0x73, 0x65,
  0x2f, 0x4d, 0x61, 0x74, 0x4d, 0x75, 0x6c, 0x00, 0x38, 0xfe, 0xff, 0xff,
  0x2e, 0xff, 0xff, 0xff, 0x04, 0x00, 0x00, 0x00, 0x08, 0x00, 0x00, 0x00,
  0xff, 0xff, 0xff, 0xff, 0x70, 0x00, 0x00, 0x00, 0x00, 0x00, 0x0e, 0x00,
  0x18, 0x00, 0x08, 0x00, 0x07, 0x00, 0x0c, 0x00, 0x10, 0x00, 0x14, 0x00,
  0x0e, 0x00, 0x00, 0x00, 0x00, 0x00, 0x00, 0x02, 0x10, 0x00, 0x00, 0x00,
  0x04, 0x00, 0x00, 0x00, 0x10, 0x00, 0x00, 0x00, 0x2c, 0x00, 0x00, 0x00,
  0x01, 0x00, 0x00, 0x00, 0x02, 0x00, 0x00, 0x00, 0x18, 0x00, 0x00, 0x00,
  0x73, 0x65, 0x71, 0x75, 0x65, 0x6e, 0x74, 0x69, 0x61, 0x6c, 0x2f, 0x66,
  0x6c, 0x61, 0x74, 0x74, 0x65, 0x6e, 0x2f, 0x43, 0x6f, 0x6e, 0x73, 0x74,
  0x00, 0x00, 0x00, 0x00, 0xa0, 0xfe, 0xff, 0xff, 0x96, 0xff, 0xff, 0xff,
  0x04, 0x00, 0x00, 0x00, 0x0c, 0x00, 0x00, 0x00, 0xd7, 0x73, 0x33, 0xc0,
  0x31, 0x54, 0x28, 0x40, 0xad, 0x36, 0x6b, 0xbf, 0x0a, 0xff, 0xff, 0xff,
  0x10, 0x00, 0x00, 0x00, 0x03, 0x00, 0x00, 0x00, 0x10, 0x00, 0x00, 0x00,
  0x3c, 0x00, 0x00, 0x00, 0x01, 0x00, 0x00, 0x00, 0x03, 0x00, 0x00, 0x00,
  0x29, 0x00, 0x00, 0x00, 0x73, 0x65, 0x71, 0x75, 0x65, 0x6e, 0x74, 0x69,
  0x61, 0x6c, 0x2f, 0x64, 0x65, 0x6e, 0x73, 0x65, 0x5f, 0x31, 0x2f, 0x42,
  0x69, 0x61, 0x73, 0x41, 0x64, 0x64, 0x2f, 0x52, 0x65, 0x61, 0x64, 0x56,
  0x61, 0x72, 0x69, 0x61, 0x62, 0x6c, 0x65, 0x4f, 0x70, 0x00, 0x00, 0x00,
  0x60, 0xff, 0xff, 0xff, 0x00, 0x00, 0x06, 0x00, 0x08, 0x00, 0x04, 0x00,
  0x06, 0x00, 0x00, 0x00, 0x04, 0x00, 0x00, 0x00, 0x40, 0x00, 0x00, 0x00,
  0xc5, 0x58, 0x82, 0x40, 0xa7, 0x9f, 0xa1, 0x40, 0x11, 0xd6, 0xc4, 0x3f,
  0x42, 0xb3, 0x15, 0xbf, 0x13, 0x5e, 0x10, 0xbe, 0xc2, 0xce, 0x27, 0xbf,
  0x2f, 0x39, 0x3a, 0xbe, 0x3b, 0xa7, 0xdf, 0x3f, 0xcc, 0xba, 0x8e, 0xbf,
  0x12, 0x74, 0x27, 0xbf, 0xec, 0x1d, 0x00, 0xbf, 0xe7, 0xea, 0x87, 0xbf,
  0x3e, 0x40, 0xb4, 0xbe, 0x26, 0x37, 0x0e, 0x40, 0x25, 0x05, 0x63, 0x40,
  0xe4, 0x4d, 0x13, 0xbe, 0xae, 0xff, 0xff, 0xff, 0x10, 0x00, 0x00, 0x00,
  0x02, 0x00, 0x00, 0x00, 0x10, 0x00, 0x00, 0x00, 0x3c, 0x00, 0x00, 0x00,
  0x01, 0x00, 0x00, 0x00, 0x10, 0x00, 0x00, 0x00, 0x27, 0x00, 0x00, 0x00,
  0x73, 0x65, 0x71, 0x75, 0x65, 0x6e, 0x74, 0x69, 0x61, 0x6c, 0x2f, 0x64,
  0x65, 0x6e, 0x73, 0x65, 0x2f, 0x42, 0x69, 0x61, 0x73, 0x41, 0x64, 0x64,
  0x2f, 0x52, 0x65, 0x61, 0x64, 0x56, 0x61, 0x72, 0x69, 0x61, 0x62, 0x6c,
  0x65, 0x4f, 0x70, 0x00, 0x04, 0x00, 0x06, 0x00, 0x04, 0x00, 0x00, 0x00,
  0x00, 0x00, 0x0e, 0x00, 0x14, 0x00, 0x04, 0x00, 0x00, 0x00, 0x08, 0x00,
  0x0c, 0x00, 0x10, 0x00, 0x0e, 0x00, 0x00, 0x00, 0x10, 0x00, 0x00, 0x00,
  0x01, 0x00, 0x00, 0x00, 0x1c, 0x00, 0x00, 0x00, 0x2c, 0x00, 0x00, 0x00,
  0x04, 0x00, 0x00, 0x00, 0x01, 0x00, 0x00, 0x00, 0x40, 0x00, 0x00, 0x00,
  0x03, 0x00, 0x00, 0x00, 0x01, 0x00, 0x00, 0x00, 0x0c, 0x00, 0x00, 0x00,
  0x63, 0x6f, 0x6e, 0x76, 0x32, 0x64, 0x5f, 0x69, 0x6e, 0x70, 0x75, 0x74,
  0x00, 0x00, 0x00, 0x00, 0xfc, 0xff, 0xff, 0xff, 0x04, 0x00, 0x04, 0x00,
  0x04, 0x00, 0x00, 0x00

  // Paste the data of the char array in `src/model.cc` here

};


unsigned int model_tflite_len = 12316;// Fill the int in `src/model.cc` here